{
  "version": "1.0",
  "truncation": null,
  "padding": null,
  "added_tokens": [
    {
      "id": 0,
      "content": "<|pad|>",
      "single_word": false,
      "lstrip": false,
      "rstrip": false,
      "normalized": false,
      "special": true
    },
    {
      "id": 1,
      "content": "<|bos|>",
      "single_word": false,
      "lstrip": false,
      "rstrip": false,
      "normalized": false,
      "special": true
    },
    {
      "id": 2,
      "content": "<|eos|>",
      "single_word": false,
      "lstrip": false,
      "rstrip": false,
      "normalized": false,
      "special": true
    },
    {
      "id": 3,
      "content": "<|unk|>",
      "single_word": false,
      "lstrip": false,
      "rstrip": false,
      "normalized": false,
      "special": true
    },
    {
      "id": 4,
      "content": "<|im_start|>",
      "single_word": false,
      "lstrip": false,
      "rstrip": false,
      "normalized": false,
      "special": true
    },
    {
      "id": 5,
      "content": "<|im_end|>",
      "single_word": false,
      "lstrip": false,
      "rstrip": false,
      "normalized": false,
      "special": true
    },
    {
      "id": 6,
      "content": "<|system|>",
      "single_word": false,
      "lstrip": false,
      "rstrip": false,
      "normalized": false,
      "special": true
    },
    {
      "id": 7,
      "content": "<|user|>",
      "single_word": false,
      "lstrip": false,
      "rstrip": false,
      "normalized": false,
      "special": true
    },
    {
      "id": 8,
      "content": "<|assistant|>",
      "single_word": false,
      "lstrip": false,
      "rstrip": false,
      "normalized": false,
      "special": true
    },
    {
      "id": 9,
      "content": "<|translate_en_ta|>",
      "single_word": false,
      "lstrip": false,
      "rstrip": false,
      "normalized": false,
      "special": true
    },
    {
      "id": 10,
      "content": "<|translate_ta_en|>",
      "single_word": false,
      "lstrip": false,
      "rstrip": false,
      "normalized": false,
      "special": true
    },
    {
      "id": 11,
      "content": "<|paraphrase|>",
      "single_word": false,
      "lstrip": false,
      "rstrip": false,
      "normalized": false,
      "special": true
    },
    {
      "id": 12,
      "content": "<|extract_ner|>",
      "single_word": false,
      "lstrip": false,
      "rstrip": false,
      "normalized": false,
      "special": true
    }
  ],
  "normalizer": null,
  "pre_tokenizer": {
    "type": "Sequence",
    "pretokenizers": [
      {
        "type": "ByteLevel",
        "add_prefix_space": false,
        "trim_offsets": true,
        "use_regex": true
      }
    ]
  },
  "post_processor": {
    "type": "ByteLevel",
    "add_prefix_space": true,
    "trim_offsets": false,
    "use_regex": true
  },
  "decoder": {
    "type": "ByteLevel",
    "add_prefix_space": true,
    "trim_offsets": true,
    "use_regex": true
  },
  "model": {
    "type": "BPE",
    "dropout": null,
    "unk_token": "<|unk|>",
    "continuing_subword_prefix": null,
    "end_of_word_suffix": null,
    "fuse_unk": false,
    "byte_fallback": false,
    "ignore_merges": false,
    "vocab": {
      "<|pad|>": 0,
      "<|bos|>": 1,
      "<|eos|>": 2,
      "<|unk|>": 3,
      "<|im_start|>": 4,
      "<|im_end|>": 5,
      "<|system|>": 6,
      "<|user|>": 7,
      "<|assistant|>": 8,
      "<|translate_en_ta|>": 9,
      "<|translate_ta_en|>": 10,
      "<|paraphrase|>": 11,
      "<|extract_ner|>": 12,
      "!": 13,
      "\"": 14,
      "#": 15,
      "$": 16,
      "%": 17,
      "&": 18,
      "'": 19,
      "(": 20,
      ")": 21,
      "*": 22,
      "+": 23,
      ",": 24,
      "-": 25,
      ".": 26,
      "/": 27,
      "0": 28,
      "1": 29,
      "2": 30,
      "3": 31,
      "4": 32,
      "5": 33,
      "6": 34,
      "7": 35,
      "8": 36,
      "9": 37,
      ":": 38,
      ";": 39,
      "<": 40,
      "=": 41,
      ">": 42,
      "?": 43,
      "@": 44,
      "A": 45,
      "B": 46,
      "C": 47,
      "D": 48,
      "E": 49,
      "F": 50,
      "G": 51,
      "H": 52,
      "I": 53,
      "J": 54,
      "K": 55,
      "L": 56,
      "M": 57,
      "N": 58,
      "O": 59,
      "P": 60,
      "Q": 61,
      "R": 62,
      "S": 63,
      "T": 64,
      "U": 65,
      "V": 66,
      "W": 67,
      "X": 68,
      "Y": 69,
      "Z": 70,
      "[": 71,
      "\\": 72,
      "]": 73,
      "^": 74,
      "_": 75,
      "`": 76,
      "a": 77,
      "b": 78,
      "c": 79,
      "d": 80,
      "e": 81,
      "f": 82,
      "g": 83,
      "h": 84,
      "i": 85,
      "j": 86,
      "k": 87,
      "l": 88,
      "m": 89,
      "n": 90,
      "o": 91,
      "p": 92,
      "q": 93,
      "r": 94,
      "s": 95,
      "t": 96,
      "u": 97,
      "v": 98,
      "w": 99,
      "x": 100,
      "y": 101,
      "z": 102,
      "{": 103,
      "|": 104,
      "}": 105,
      "~": 106,
      "¡": 107,
      "¢": 108,
      "£": 109,
      "¤": 110,
      "¥": 111,
      "¦": 112,
      "§": 113,
      "¨": 114,
      "©": 115,
      "ª": 116,
      "«": 117,
      "¬": 118,
      "®": 119,
      "¯": 120,
      "°": 121,
      "±": 122,
      "²": 123,
      "³": 124,
      "´": 125,
      "µ": 126,
      "¶": 127,
      "·": 128,
      "¸": 129,
      "¹": 130,
      "º": 131,
      "»": 132,
      "¼": 133,
      "½": 134,
      "¾": 135,
      "¿": 136,
      "À": 137,
      "Á": 138,
      "Â": 139,
      "Ã": 140,
      "Ä": 141,
      "Å": 142,
      "Æ": 143,
      "Ç": 144,
      "È": 145,
      "É": 146,
      "Ê": 147,
      "Ë": 148,
      "Ì": 149,
      "Í": 150,
      "Î": 151,
      "Ï": 152,
      "Ð": 153,
      "Ñ": 154,
      "Ò": 155,
      "Ó": 156,
      "Ô": 157,
      "Õ": 158,
      "Ö": 159,
      "×": 160,
      "Ø": 161,
      "Ù": 162,
      "Ú": 163,
      "Û": 164,
      "Ü": 165,
      "Ý": 166,
      "Þ": 167,
      "ß": 168,
      "à": 169,
      "á": 170,
      "â": 171,
      "ã": 172,
      "ä": 173,
      "å": 174,
      "æ": 175,
      "ç": 176,
      "è": 177,
      "é": 178,
      "ê": 179,
      "ë": 180,
      "ì": 181,
      "í": 182,
      "î": 183,
      "ï": 184,
      "ð": 185,
      "ñ": 186,
      "ò": 187,
      "ó": 188,
      "ô": 189,
      "õ": 190,
      "ö": 191,
      "÷": 192,
      "ø": 193,
      "ù": 194,
      "ú": 195,
      "û": 196,
      "ü": 197,
      "ý": 198,
      "þ": 199,
      "ÿ": 200,
      "Ā": 201,
      "ā": 202,
      "Ă": 203,
      "ă": 204,
      "Ą": 205,
      "ą": 206,
      "Ć": 207,
      "ć": 208,
      "Ĉ": 209,
      "ĉ": 210,
      "Ċ": 211,
      "ċ": 212,
      "Č": 213,
      "č": 214,
      "Ď": 215,
      "ď": 216,
      "Đ": 217,
      "đ": 218,
      "Ē": 219,
      "ē": 220,
      "Ĕ": 221,
      "ĕ": 222,
      "Ė": 223,
      "ė": 224,
      "Ę": 225,
      "ę": 226,
      "Ě": 227,
      "ě": 228,
      "Ĝ": 229,
      "ĝ": 230,
      "Ğ": 231,
      "ğ": 232,
      "Ġ": 233,
      "ġ": 234,
      "Ģ": 235,
      "ģ": 236,
      "Ĥ": 237,
      "ĥ": 238,
      "Ħ": 239,
      "ħ": 240,
      "Ĩ": 241,
      "ĩ": 242,
      "Ī": 243,
      "ī": 244,
      "Ĭ": 245,
      "ĭ": 246,
      "Į": 247,
      "į": 248,
      "İ": 249,
      "ı": 250,
      "Ĳ": 251,
      "ĳ": 252,
      "Ĵ": 253,
      "ĵ": 254,
      "Ķ": 255,
      "ķ": 256,
      "ĸ": 257,
      "Ĺ": 258,
      "ĺ": 259,
      "Ļ": 260,
      "ļ": 261,
      "Ľ": 262,
      "ľ": 263,
      "Ŀ": 264,
      "ŀ": 265,
      "Ł": 266,
      "ł": 267,
      "Ń": 268,
      "à®": 269,
      "à¯": 270,
      "à¯į": 271,
      "Ġà®": 272,
      "à®¿": 273,
      "à¯ģ": 274,
      "à®ķ": 275,
      "à®¤": 276,
      "à®°": 277,
      "à®¾": 278,
      "à®Ł": 279,
      "à®ª": 280,
      "à®®": 281,
      "à®²": 282,
      "à®©": 283,
      "à®¯": 284,
      "à®³": 285,
      "à¯Ī": 286,
      "à®±": 287,
      "à®µ": 288,
      "Ġà®ª": 289,
      "Ġà®ķ": 290,
      "à®ļ": 291,
      "à®ķà®³": 292,
      "Ġà®®": 293,
      "à®£": 294,
      "à®¨": 295,
      "Ġà®¤": 296,
      "Ġà®ĩ": 297,
      "Ġà®µ": 298,
      "à¯Ĩ": 299,
      "à¯ĩ": 300,
      "Ġà®ļ": 301,
      "Ġà®ħ": 302,
      "à¯ĭ": 303,
      "Ġà®¨": 304,
      "à®´": 305,
      "à®Ļ": 306,
      "à¯Ĭ": 307,
      "à®ªà®Ł": 308,
      "à¯į.": 309,
      "Ġà®İ": 310,
      "Ġà®Ĩ": 311,
      "à¯Ĥ": 312,
      "à¯į,": 313,
      "Ġà®ī": 314,
      "à¯Ģ": 315,
      "à¯ģ.": 316,
      "à®µà®°": 317,
      "Ġà®İà®©": 318,
      "Ġ(": 319,
      "Ġà®ĩà®°": 320,
      "Ġ1": 321,
      "Ġà®Ĵ": 322,
      "ĠĊ": 323,
      "à®ķà®ª": 324,
      "à®ķà®°": 325,
      "à®¸": 326,
      "à®Łà®¤": 327,
      "à®¤à®©": 328,
      "à®¤à®²": 329,
      "à®±à®¤": 330,
      "à®µà®¤": 331,
      "à®¯à®²": 332,
      "à®ķà®®": 333,
      "âĢ": 334,
      "à®ªà®¤": 335,
      "Ġà®ħà®®": 336,
      "à®ĩ": 337,
      "à®¯à®°": 338,
      "Ġà®®à®±": 339,
      "à®©à®°": 340,
      "à®Łà®®": 341,
      "ĠâĢ": 342,
      "à®¯à®¤": 343,
      "à®ķà®¤": 344,
      "Ġà®Ĵà®°": 345,
      "ĠâĢĵ": 346,
      "à®¯à®®": 347,
      "à®°à®®": 348,
      "Ġà®ĩà®¨": 349,
      "Ġà®ĩà®¤": 350,
      "Ġà®īà®³": 351,
      "Ġà®¤à®®": 352,
      "ĠĠ": 353,
      "Ġà®µà®°": 354,
      "19": 355,
      "Ġà®Ĩà®ķ": 356,
      "à®¤à®¤": 357,
      "Ġà®ķà®Ł": 358,
      "Ġà®ħà®°": 359,
      "à®Łà®©": 360,
      "à®²à®¤": 361,
      "00": 362,
      "à¯ģ,": 363,
      "Ġ19": 364,
      "Ġ2": 365,
      "Ġà®¨à®Ł": 366,
      "à®³à®°": 367,
      "Ġ-": 368,
      "à®¿.": 369,
      "à®ķà®µ": 370,
      "à®ľ": 371,
      "à®¤à®®": 372,
      "à®²à®®": 373,
      "à®¯à®©": 374,
      "à®©à®¤": 375,
      "Ġà®Ĩà®£": 376,
      "Ġà®ı": 377,
      "à®³à®¤": 378,
      "Ġà®ĩà®²": 379,
      "Ġà®ħà®¤": 380,
      "Ġà®°": 381,
      "à®ŀ": 382,
      "Ġà®ªà®Ł": 383,
      "Ġà®ªà®²": 384,
      "à®Łà®°": 385,
      "Ġà®ķà®£": 386,
      "à®ķà®²": 387,
      "Ġà®ķà®²": 388,
      "Ġà®®à®ķ": 389,
      "à®¤à®°": 390,
      "à®ªà®°": 391,
      "Ġà®ħà®Ł": 392,
      "à®¿,": 393,
      "à®¯à®ķ": 394,
      "Ġà®īà®°": 395,
      "à®±à®©": 396,
      "à®µà®©": 397,
      "Ġà®ľ": 398,
      "Ġà®ķà®°": 399,
      "à®¤à®ª": 400,
      "Ġà®ħà®²": 401,
      "à®¯à®ª": 402,
      "Ġà®ªà®ķ": 403,
      "Ġà®ħà®±": 404,
      "à®ħ": 405,
      "à®°à®¤": 406,
      "à®Łà®²": 407,
      "à®±à®ª": 408,
      "à®Ĩ": 409,
      "Ġà®ħà®µà®°": 410,
      "Ġà®Ł": 411,
      "à®ªà®Łà®Ļ": 412,
      "Ġà®ħà®°à®ļ": 413,
      "à®²à®ķ": 414,
      "à®£à®®": 415,
      "Ġà®µà®´": 416,
      "à®µà®Ł": 417,
      "à®Łà®Ļ": 418,
      "à®µà®±": 419,
      "Ġà®ļà®®": 420,
      "Ġà®ªà®°": 421,
      "à®¯à®±": 422,
      "à®Łà®ķ": 423,
      "an": 424,
      "Ġà®¯": 425,
      "à®·": 426,
      "à®®à®©": 427,
      "à®³à®µ": 428,
      "Ġà®İà®´": 429,
      "à®Łà®ª": 430,
      "Ġà®¤à®²": 431,
      "à¯į)": 432,
      "Ġà®¨à®ķà®°": 433,
      "Ġà®ħà®©": 434,
      "er": 435,
      "à®ķà®ķ": 436,
      "Ġà®Ĳ": 437,
      "Ġà®Ĩà®®": 438,
      "Ġà®¤à®©": 439,
      "Ġà®ĩà®µà®°": 440,
      "Ġà®ĩà®£": 441,
      "à®ļà®©": 442,
      "Ġà®®à®©": 443,
      "Ġà®Ĵà®©": 444,
      "ĠĠĠĠ": 445,
      "à®ķà®´": 446,
      "à®ļà®°": 447,
      "Ġà®ªà®¤": 448,
      "à®µà®®": 449,
      "Ġà®ªà®¯à®©": 450,
      "Ġà®ıà®±": 451,
      "on": 452,
      "Ġà®²": 453,
      "à¯Ī,": 454,
      "in": 455,
      "à®ļà®®": 456,
      "à®İ": 457,
      "Ġ\"": 458,
      "Ġà®µà®Ł": 459,
      "Ġà®ªà®£": 460,
      "à®°à®ª": 461,
      "à®³à®®": 462,
      "à®µà®¨": 463,
      "Ġà®ĩà®ļ": 464,
      "Ġà®ħà®´": 465,
      "à®®à®²": 466,
      "Ġà®ĵ": 467,
      "Ġà®ĩà®©": 468,
      "Ġà®īà®±": 469,
      "Ġà®µà®ķ": 470,
      "à®°à®ļ": 471,
      "à®¤à®µ": 472,
      "à®³à®©": 473,
      "Ġà®ĩà®µ": 474,
      "à®±à®¨": 475,
      "Ġà®īà®£": 476,
      "al": 477,
      "Ġà®ĩà®°à®£": 478,
      "at": 479,
      "à®¯à®Ļ": 480,
      "Ġà®ħà®£": 481,
      "Ġ3": 482,
      "à®ªà®ķ": 483,
      "à®´à®ķ": 484,
      "01": 485,
      "à®©à®®": 486,
      "ar": 487,
      "à¯Ī.": 488,
      "Ġà®®à®¤": 489,
      "à®ķà®Ļ": 490,
      "Ġà®Ĩà®°": 491,
      "or": 492,
      "Ġà®ĩà®¯à®ķ": 493,
      "Ġà®µà®¨": 494,
      "Ġà®Ĭ": 495,
      "à®¤à®©à®°": 496,
      "Ġà®Ī": 497,
      "Ġà®İà®¤": 498,
      "Ġà®ĩà®¤à®©": 499,
      "à®²à®Ļ": 500,
      "en": 501,
      "à®¾,": 502,
      "Ġ200": 503,
      "Ġà®®à®°": 504,
      "Ġà®ļà®°": 505,
      "à®¤à®ķ": 506,
      "Ġà®İà®Ł": 507,
      "à®²à®ª": 508,
      "Ġà®ħà®µ": 509,
      "Ġ18": 510,
      "à®ķà®Ł": 511,
      "à®±à®®": 512,
      "à¯į:": 513,
      "18": 514,
      "à®µà®²": 515,
      "à®ĩà®¨": 516,
      "Ġà®ªà®±": 517,
      "),": 518,
      "à®ķà®©": 519,
      "Ġà®Ĩà®Ł": 520,
      "à®ī": 521,
      "Ġà®Ĩà®±": 522,
      "es": 523,
      "à®°à®Ļ": 524,
      "Ġà®ĩà®Ł": 525,
      "à®ªà®²": 526,
      "Ġà®®à®²": 527,
      "à®£à®ª": 528,
      "ic": 529,
      "Ġà®ħà®³à®µ": 530,
      "Ġà®Ĩà®©": 531,
      "Ġà®ĩà®²à®Ļ": 532,
      "à®®à®¤": 533,
      "Ġ4": 534,
      "Ġà®ĩà®ª": 535,
      "Ġà®Ĩà®¯": 536,
      "Ġà®®à®£": 537,
      "th": 538,
      "Ġà®ħà®¤à®©": 539,
      "à®ªà®®": 540,
      "à®ķà®£": 541,
      "Ġà®īà®Ł": 542,
      "is": 543,
      "à¯ĩ.": 544,
      "à®ªà®©": 545,
      "Ġ5": 546,
      "à®ªà®Łà®®": 547,
      "Ġà®¹": 548,
      "Ġà®İà®£": 549,
      "à®ªà®Łà®¤": 550,
      "à®µà®ķ": 551,
      "Ġà®īà®¯": 552,
      "à®ļà®¤": 553,
      "à®®à®°": 554,
      "Ġà®ĩà®±": 555,
      "Ġà®¸": 556,
      "à®¨à®ķà®°": 557,
      "Ġà®®à®Ł": 558,
      "à®°à®£": 559,
      "Ġà®ħà®ķ": 560,
      "ĠS": 561,
      "Ġà®ħà®ª": 562,
      "Ġà®ĩà®Ļ": 563,
      "à®´à®¨": 564,
      "Ġà®ķà®¤": 565,
      "ĠC": 566,
      "à®°à®°": 567,
      "à®ªà®¨": 568,
      "Ġà®ªà®¯": 569,
      "Ġà®µà®³à®°": 570,
      "à®°à®©": 571,
      "Ġà®īà®¯à®°": 572,
      "Ġà®¤à®°": 573,
      "Ġà®īà®²": 574,
      "Ġà®ħà®¨": 575,
      "à®¤à®µà®°": 576,
      "à®ŀà®°": 577,
      "Ġà®µà®´à®Ļ": 578,
      "ĠA": 579,
      "Ġà®µà®°à®²": 580,
      "Ġà®İà®²": 581,
      "Ġà®īà®²à®ķ": 582,
      "à®¹": 583,
      "200": 584,
      "it": 585,
      "ion": 586,
      "Ġà®ļà®¨": 587,
      "Ġà®ļà®ķ": 588,
      "à®Ĩà®®": 589,
      "Ġà®¤à®©à®¤": 590,
      "à®µà®¤à®±": 591,
      "Ġ6": 592,
      "à®³à®Ļ": 593,
      "Ġà®µà®²": 594,
      "of": 595,
      "à®ļà®²": 596,
      "Ġà®İà®¸": 597,
      "am": 598,
      "à®¯à®µ": 599,
      "à®£à®¤": 600,
      "à®°à®£à®®": 601,
      "Ġà®ĩà®²à®ķ": 602,
      "Ġà®ĩà®Łà®®": 603,
      "à®ķà®ļ": 604,
      "ĠT": 605,
      "à®®à®ķ": 606,
      "ĠP": 607,
      "à®³à®©à®°": 608,
      "Ġà®ªà®´": 609,
      "à®±à®ķ": 610,
      "le": 611,
      "à®±à®©à®°": 612,
      "à®ªà®±": 613,
      "Âł": 614,
      "Ġà®ķà®©": 615,
      "Ġà®ĩà®¯à®±": 616,
      "ĠĠĠĠĠĠĠĠ": 617,
      "Ġ7": 618,
      "à®°à®Ł": 619,
      "Ġà®¤à®Ł": 620,
      "Ġof": 621,
      "à®³à®ķ": 622,
      "à®ªà®µà®°": 623,
      "à®²à®µ": 624,
      "à®±à®µ": 625,
      "à¯į\"": 626,
      "Ġà®Ĩà®°à®®": 627,
      "om": 628,
      "ĠM": 629,
      "Ġà®¤à®Ļ": 630,
      "Ġà®Ĩà®Ļ": 631,
      "Ġà®ļà®Ł": 632,
      "Ġ199": 633,
      "Ġà®ħà®Ļ": 634,
      "Ġ8": 635,
      "à®°à®²": 636,
      "à¯Į": 637,
      "Ġà®ļà®¤": 638,
      "à®®à®£": 639,
      "Ġà®Ĩà®ļ": 640,
      "Ġ9": 641,
      "Ġà®İà®©à®ª": 642,
      "000": 643,
      "Ġà®ħà®ļ": 644,
      "197": 645,
      "Ġà®µà®£": 646,
      "Ġà®Ĭà®°": 647,
      "ur": 648,
      "à®´à®°": 649,
      "à¯į-": 650,
      "à®°à®ķ": 651,
      "Ġà®Ĩà®¤": 652,
      "Ġà®Ĩà®µ": 653,
      "and": 654,
      "à®µà®ª": 655,
      "à®Łà®©à®°": 656,
      "ĥà®ª": 657,
      "Ġ201": 658,
      "201": 659,
      "à®Łà®µ": 660,
      "as": 661,
      "Ġ197": 662,
      "Ġà®ķà®µ": 663,
      "Ġ'": 664,
      "Ġ15": 665,
      "194": 666,
      "Ġà®¤à®¯": 667,
      "Ġà®ĩà®ķ": 668,
      "Ġà®ķà®±": 669,
      "à®³à®ª": 670,
      "Ġà®ªà®²à®°": 671,
      "199": 672,
      "ol": 673,
      "Ġà®ķà®Łà®²": 674,
      "198": 675,
      "à®ļà®ª": 676,
      "Ġà®ļà®Ļ": 677,
      "Ġà®ªà®©": 678,
      "Ġ198": 679,
      "Ġà®¤à®±": 680,
      "à®£à®©": 681,
      "ĠB": 682,
      "il": 683,
      "à®®à®®": 684,
      "Ġà®Ĳà®ķ": 685,
      "à®Ĵ": 686,
      "à®ĩà®²": 687,
      "196": 688,
      "17": 689,
      "à®¿)": 690,
      "Ġà®ªà®Ļ": 691,
      "Ġà®µà®³": 692,
      "à®¤à®Ļ": 693,
      "he": 694,
      "à®°à®µ": 695,
      "à®ĩà®¤": 696,
      "Ġ17": 697,
      "Ġ10": 698,
      "Ġà®ĵà®°": 699,
      "à®±à®²": 700,
      "Ġ196": 701,
      "Ġ.": 702,
      "Ġà®ĩà®Łà®¤": 703,
      "Ġà®¤à®¨": 704,
      "à®ļà®Ļ": 705,
      "à¯ģ)": 706,
      "à®´à®²": 707,
      "Ġà®İà®®": 708,
      "Ġth": 709,
      "à¯ģ:": 710,
      "Ġà®īà®¤": 711,
      "Ġà®īà®¤à®µ": 712,
      "ĠI": 713,
      "el": 714,
      "Ġà®¨à®®": 715,
      "Ġà®Ĵà®ª": 716,
      "ing": 717,
      "Ġà®Ĩà®²": 718,
      "ent": 719,
      "à®®à®Ļ": 720,
      "à®ļà®¨": 721,
      "195": 722,
      "Ġà®ķà®£à®ķ": 723,
      "Ġà®ļà®ª": 724,
      "ĠR": 725,
      "ed": 726,
      "st": 727,
      "à®¤à®¨": 728,
      "à®²à®°": 729,
      "Ġ20": 730,
      "Ġ=": 731,
      "Ġà®ķà®´": 732,
      "à®ħà®®": 733,
      "ch": 734,
      "20": 735,
      "ĠN": 736,
      "Ġà®ªà®³": 737,
      "Ġà®¨à®Łà®¤": 738,
      "Ġà®ħà®µà®±": 739,
      "Ġthe": 740,
      "Ġ16": 741,
      "Ġà®İà®°": 742,
      "ation": 743,
      "ĠL": 744,
      "ro": 745,
      "ĠD": 746,
      "à®¯à®µà®°": 747,
      "à®µà®Ļ": 748,
      "à®ªà®¤à®±": 749,
      "Ġà®ĩà®®": 750,
      "à®©à®Ļ": 751,
      "Ġà®µà®Łà®ķ": 752,
      "Ġ195": 753,
      "ĠE": 754,
      "et": 755,
      "Ġà®İà®©à®µ": 756,
      "Ġà®ħà®µà®°à®¤": 757,
      "Ġ,": 758,
      "Ġà®µà®´à®ķ": 759,
      "Ġà®ªà®°à®ª": 760,
      "Ġà®ĵà®Ł": 761,
      "à®¯à®Ł": 762,
      "Ġà®Ĵà®²": 763,
      "Ġà®Ĩà®ª": 764,
      "ĠH": 765,
      "à®¯à®µà®±": 766,
      "Ġà®Ĵà®³": 767,
      "Ġ12": 768,
      "ĠĠĊ": 769,
      "à®µà®°à®¤": 770,
      "Ġà®ĩà®¯": 771,
      "||": 772,
      "à®¨à®Ł": 773,
      "Ġà®īà®£à®µ": 774,
      "à®ľà®©": 775,
      "à®ĥà®ª": 776,
      "Ġà®Ĳà®°": 777,
      "16": 778,
      "ĠG": 779,
      "ct": 780,
      "à®±à®Ļ": 781,
      "à®¤à®±": 782,
      "re": 783,
      "us": 784,
      "Ġà®ķà®®": 785,
      "à®ªà®£": 786,
      "193": 787,
      "Ġà®Ĵà®µ": 788,
      "à®²à®©": 789,
      "à®©à®©": 790,
      "Ġ194": 791,
      "15": 792,
      "à®µà®³": 793,
      "à®£à®°": 794,
      "ag": 795,
      "Ġand": 796,
      "ĠF": 797,
      "à®°à®°à®ļ": 798,
      "Ġà®Īà®Ł": 799,
      "Ġà®ĩà®µà®±": 800,
      "à®©à®ķ": 801,
      "à®ªà®°à®ª": 802,
      "Ġà®µà®¯à®¤": 803,
      "Ġp": 804,
      "à¯ĩ,": 805,
      "Ġà®ľà®©": 806,
      "à®Ĳ": 807,
      "à®¯à®ļ": 808,
      "ad": 809,
      "um": 810,
      "à®¾.": 811,
      "iv": 812,
      "Ġà®Ĳà®¨": 813,
      "à®©à®µ": 814,
      "à®µà®©à®®": 815,
      "à®£à®Ļ": 816,
      "Ġf": 817,
      "Ġà®®à®ķà®©": 818,
      "Ġà®ĩà®¯à®²": 819,
      "à®±à®µà®°": 820,
      "Ġ14": 821,
      "à¯į;": 822,
      "Ġà®¨à®ķà®°à®Ļ": 823,
      "à®©à®ª": 824,
      "à®µà®´": 825,
      "à®µà®£": 826,
      "Ġà®īà®Łà®²": 827,
      "Ġà®ļà®©": 828,
      "Ġà®ķà®ª": 829,
      "un": 830,
      "Ġà®¨à®ķà®°à®®": 831,
      "Ġà®ĩà®Łà®Ļ": 832,
      ").": 833,
      "Ġà®ħà®³": 834,
      "à®İà®¸": 835,
      "à®ķà®µà®²": 836,
      "Ġà®ĩà®³": 837,
      "à®ĩà®µà®±": 838,
      "Ġ193": 839,
      "à®®à®ļ": 840,
      "à®´à®¤": 841,
      "à®µà®ļ": 842,
      "à®²à®µà®°": 843,
      "Ġà®Īà®°": 844,
      "Ġc": 845,
      "à®¤à®Ł": 846,
      "ra": 847,
      "Ġà®®à®°à®ª": 848,
      "à¯ĭ,": 849,
      "Ġ13": 850,
      "Ġs": 851,
      "Ġà®ĩà®µà®°à®¤": 852,
      "Ġà®İà®ļ": 853,
      "Ġà®¤à®µ": 854,
      "à®Łà®µà®°": 855,
      "ig": 856,
      "à®°à®¤à®®": 857,
      "Ġà®µà®Ļ": 858,
      "Ġb": 859,
      "id": 860,
      "à®²à®ļ": 861,
      "à®¨à®°": 862,
      "Ġà®ªà®ļ": 863,
      "à¯į'": 864,
      "10": 865,
      "Ġà®¨à®²": 866,
      "à®Łà®ļ": 867,
      "à®ªà®Ļ": 868,
      "à®¯à®°à®ļ": 869,
      "à®ĩà®²à®Ļ": 870,
      "ht": 871,
      "Ġà®İà®¨": 872,
      "à®ı": 873,
      "à®ªà®ª": 874,
      "12": 875,
      "ist": 876,
      "ĠW": 877,
      "Ġà®·": 878,
      "ĠO": 879,
      "Ġà®ĩà®¤à®±": 880,
      "à®ªà®³": 881,
      "Ġà®īà®Łà®©": 882,
      "Ġà®īà®²à®ķà®ª": 883,
      "14": 884,
      "Ġin": 885,
      "à®Łà®±": 886,
      "Ġà®µà®ļ": 887,
      "à®İà®©": 888,
      "Ġà®¨à®©": 889,
      "Ġà®¤à®ķà®µà®²": 890,
      "à¯Ī)": 891,
      "à®İà®®": 892,
      "à¯Ģ.": 893,
      "Ġt": 894,
      "Ġà®ĩà®¯à®Ļ": 895,
      "à®ĩà®°": 896,
      "Ġà®ıà®°": 897,
      "em": 898,
      "à®´à®®": 899,
      "à®Ĭ": 900,
      "Ġà®Ĵà®Ł": 901,
      "à®¤à®ļ": 902,
      "Ġà®ªà®ŀ": 903,
      "à®ķà®³à®µ": 904,
      "ia": 905,
      "og": 906,
      "à®Ĩà®Ļ": 907,
      "Ġà®ıà®©": 908,
      "Ġ:": 909,
      "à®Ĵà®°": 910,
      "ul": 911,
      "à®ķà®Łà®²": 912,
      "Ġà®İà®ķ": 913,
      "ut": 914,
      "à¤": 915,
      "Ġà®ķà®Łà®±": 916,
      "Ġà®¤à®£": 917,
      "à®²à®¨": 918,
      "à®ļà®ķ": 919,
      "Ġà®Ĵà®¤": 920,
      "Ġd": 921,
      "op": 922,
      "à®ķà®°à®®": 923,
      "à®£à®ķ": 924,
      "ce": 925,
      "Ġà®ķà®³": 926,
      "Ġ192": 927,
      "âĢĵ": 928,
      "192": 929,
      "à®©à®£": 930,
      "Ġ11": 931,
      "Ġà®ªà®¤à®µ": 932,
      "Ġà®İà®©à®ķ": 933,
      "à®ªà®µ": 934,
      "Ġà®īà®£à®°": 935,
      "à®´à®ª": 936,
      "à®ķà®±": 937,
      "ww": 938,
      "Ġà®ħà®¤à®±": 939,
      "Ġà®®à®Ļ": 940,
      "Ġà®Ĩà®¤à®°": 941,
      "Ġà®¨à®Łà®¨": 942,
      "Ġà®ĩà®±à®¨": 943,
      "Ġa": 944,
      "à®ķà®¨": 945,
      "Ġà®Ĭà®Ł": 946,
      "Ġ0": 947,
      "Ġà®ıà®´": 948,
      "à®°à®µà®°": 949,
      "ers": 950,
      "ĠIn": 951,
      "ot": 952,
      "Ġà®Ĩà®µà®¤": 953,
      "Ġ25": 954,
      "Ġà®ķà®Łà®µ": 955,
      "..": 956,
      "Ġm": 957,
      "Ġà®¨à®Łà®µà®Ł": 958,
      "à®Łà®®à®©": 959,
      "ay": 960,
      "à®ķà®³à®¤": 961,
      "ĠĠĠĠĠĠĠĠĠĠĠĠĠĠĠĠ": 962,
      "Ġà®ħà®µà®©": 963,
      "à®µà®°à®²": 964,
      "à®µà®°à®°": 965,
      "à·": 966,
      "à®Ī": 967,
      "os": 968,
      "Ġà®ĩà®¤à®´": 969,
      "ri": 970,
      "Ġà®Ĩà®³": 971,
      "à®ļà®Ł": 972,
      "Ġà®Ĩà®ķà®µ": 973,
      "à®Ĩà®¤": 974,
      "âĢĻ": 975,
      "à¯Ĭ.": 976,
      "13": 977,
      "Ġà®īà®ª": 978,
      "ĠK": 979,
      "à®¤à®°à®°": 980,
      "à®µà®©à®¤": 981,
      "Ġà®İà®ª": 982,
      "à¯į(": 983,
      "à®®à®±": 984,
      "à®®à®¨": 985,
      "Ġà®ĵà®µ": 986,
      "à®µà®°à®Ļ": 987,
      "ĠThe": 988,
      "|-": 989,
      "Ġà®ĩà®±à®ª": 990,
      "Ġà®Ĵà®´": 991,
      "ir": 992,
      "Ġà®¨à®ªà®°": 993,
      "à®³à®Łà®ķ": 994,
      "ter": 995,
      "im": 996,
      "Ġà®ļà®£": 997,
      "ĠU": 998,
      "od": 999,
      "à®°à®¤à®®à®°": 1000,
      "Ġà®īà®ļ": 1001,
      "à®´à®±": 1002,
      "Ġà®ªà®Łà®¤": 1003,
      "à®Ĩà®°": 1004,
      "à®ľà®°": 1005,
      "Ġà®ªà®´à®Ļ": 1006,
      "Ġà®¤à®ķ": 1007,
      "à®ªà®Łà®µ": 1008,
      "Ġà®¤à®²à®Ļ": 1009,
      "Ġà®µà®ļà®¤": 1010,
      "Ġ||": 1011,
      "à®´à®©": 1012,
      "à®µà®©à®Ļ": 1013,
      "Ġ30": 1014,
      "ĠJ": 1015,
      "à¯į),": 1016,
      "à®±à®µà®±": 1017,
      "à®°à®¸": 1018,
      "Ġà®ªà®¨": 1019,
      "Ġà®¨à®µ": 1020,
      "à®¤à®²à®®": 1021,
      "Ġà®ħà®´à®ķ": 1022,
      "50": 1023,
      "Ġà®ħà®Łà®Ļ": 1024,
      "à®ķà®²à®®": 1025,
      "Ġà®¤à®³": 1026,
      "Ġà®īà®±à®µ": 1027,
      "ĠV": 1028,
      "à®®à®£à®®": 1029,
      "Ġà®ªà®°à®®": 1030,
      "à®¨à®ķà®°à®®": 1031,
      "com": 1032,
      "Ġw": 1033,
      "ap": 1034,
      "Ġà®İà®³": 1035,
      "Ġà®ĥà®ª": 1036,
      "à¶": 1037,
      "2011": 1038,
      "à®ľà®¯": 1039,
      "Ġà®¤à®¤": 1040,
      "Ġà®Ĩà®¸": 1041,
      "Ġà®¨à®ķà®°à®¤": 1042,
      "Ġà®ªà®¯à®£": 1043,
      "ci": 1044,
      "Ġà®®à®ķà®³": 1045,
      "à®°à®®à®£": 1046,
      "Ġà®®à®´": 1047,
      "Ġ)": 1048,
      "à®´à®ķà®¤": 1049,
      "à®¤à®°à®®": 1050,
      "à®¤à®³à®®": 1051,
      "à®ĩà®µ": 1052,
      "ity": 1053,
      "à®£à®²": 1054,
      "Ġà®Īà®´à®¤": 1055,
      "à¯ģ;": 1056,
      "Ġà®ħà®²à®ķ": 1057,
      "Ġ24": 1058,
      "Ġà®ķà®©à®Ł": 1059,
      "à®ķà®°à®¤": 1060,
      "à®ªà®³à®µ": 1061,
      "à®ħà®Ł": 1062,
      "ph": 1063,
      "à®±à®´": 1064,
      "Ġà®ªà®°à®µà®²": 1065,
      "ab": 1066,
      "à®īà®ļ": 1067,
      "à®£à®µà®°": 1068,
      "11": 1069,
      "à¯ģ\"": 1070,
      "Ġà®ŀ": 1071,
      "ub": 1072,
      "ac": 1073,
      "ian": 1074,
      "à®®à®ª": 1075,
      "à®¯à®ķà®®": 1076,
      "à®°à®¨": 1077,
      "à®¯à®£": 1078,
      "à®ľà®®": 1079,
      "Ġà®ªà®´à®®": 1080,
      "à®©à®²": 1081,
      "Ġà®ıà®ª": 1082,
      "à®ħà®°": 1083,
      "Ġ190": 1084,
      "Ġà®ªà®Łà®®": 1085,
      "Ġà®İà®µ": 1086,
      "Ġà®ķà®²à®¨": 1087,
      "à®¾)": 1088,
      "Ġ189": 1089,
      "Ġ23": 1090,
      "à®ħà®¤": 1091,
      "à¯ģ-": 1092,
      "tp": 1093,
      "Ġ|": 1094,
      "à®µà®°à®®": 1095,
      "Ġà®¤à®®à®¤": 1096,
      "Ġà®µà®©": 1097,
      "à®ªà®ļ": 1098,
      "//": 1099,
      "à®©à®¨": 1100,
      "190": 1101,
      "Ġà®ĩà®°à®¤": 1102,
      "Ġ22": 1103,
      "Ġà®īà®¯à®°à®®": 1104,
      "189": 1105,
      "à®ĵ": 1106,
      "à®¿:": 1107,
      "ud": 1108,
      "Ġ+": 1109,
      "à®Łà®£": 1110,
      "Ġà®ķà®Łà®¨": 1111,
      "http": 1112,
      "ew": 1113,
      "Ġà®ħà®°à®ļà®°": 1114,
      "://": 1115,
      "à®°à®°à®ļà®°": 1116,
      "Ġà®ıà®¤": 1117,
      "Ġ2006": 1118,
      "Ġà®®à®²à®°": 1119,
      "Ġà®Ĩà®¤à®°à®µ": 1120,
      "Ġà®¤à®ŀ": 1121,
      "à®²à®Ł": 1122,
      "ess": 1123,
      "ĠâĢĺ": 1124,
      "Â°": 1125,
      "à®Ĩà®£": 1126,
      "Ġà®īà®®": 1127,
      "Ġà®¤à®ª": 1128,
      "à®ķà®´à®ķà®®": 1129,
      "Ġà®ªà®°à®µ": 1130,
      "à®°à®³": 1131,
      "ĠĠĠ": 1132,
      "Ġn": 1133,
      "ang": 1134,
      "Ġl": 1135,
      "à®¯à®¨": 1136,
      "30": 1137,
      "Ġà®ªà®Łà®Ļ": 1138,
      "Ġ100": 1139,
      "Ġ50": 1140,
      "à®ªà®¤à®©": 1141,
      "21": 1142,
      "22": 1143,
      "Ġà®ķà®Ļ": 1144,
      "à®¿\"": 1145,
      "Ġà®ħà®µà®¤": 1146,
      "ow": 1147,
      "Ġà®ļà®®à®©": 1148,
      "à¯Ī:": 1149,
      "âĢĿ": 1150,
      "à®ĩà®©": 1151,
      "à®ļà®©à®®": 1152,
      "Ġ26": 1153,
      "Ġà®ĩà®´": 1154,
      "Ġ21": 1155,
      "à®ĩà®µà®°": 1156,
      "Ġà®¨à®µà®®": 1157,
      "Ġà®ļà®®à®¯à®¤": 1158,
      "ĠSt": 1159,
      "Ġà®ªà®±à®µ": 1160,
      "à®£à®µ": 1161,
      "à®ķà®£à®ķ": 1162,
      "Ġ27": 1163,
      "à®ħà®²": 1164,
      "Ġà®ķà®Łà®¤": 1165,
      "à®ħà®©": 1166,
      "Ġà®¨à®£": 1167,
      "à®µà®¤à®©": 1168,
      "à®ķà®´à®ķà®¤": 1169,
      "à®¿-": 1170,
      "ak": 1171,
      "av": 1172,
      "Ġà®¨à®Łà®©": 1173,
      "Ġ2005": 1174,
      "Ġà®ħà®µà®³": 1175,
      "amil": 1176,
      "à®ķà®°à®©": 1177,
      "à®ĩà®¤à®©": 1178,
      "Ġà®¨à®ķ": 1179,
      "ine": 1180,
      "à®ªà®ķà®®": 1181,
      "à®µà®²à®°": 1182,
      "ov": 1183,
      "Ġhttp": 1184,
      "Ġà®¨à®±": 1185,
      "ai": 1186,
      "Ġà®ªà®µ": 1187,
      "Ġ2007": 1188,
      "à¦": 1189,
      "li": 1190,
      "ard": 1191,
      "188": 1192,
      "à®ªà®°à®®": 1193,
      "à®ĥ": 1194,
      "Ġà®µà®Łà®®": 1195,
      "186": 1196,
      "à®±à®³": 1197,
      "à®®à®³à®µ": 1198,
      "Ġà®®à®¨": 1199,
      "Ġà®²à®Ł": 1200,
      "Ġ188": 1201,
      "à®©à®µà®°": 1202,
      "Ġà®¨à®¤": 1203,
      "ex": 1204,
      "Ġà®¤à®°à®µ": 1205,
      "=\"": 1206,
      "à®³à®²": 1207,
      "Ġà®ķà®¨": 1208,
      "Ġ2000": 1209,
      "à®Łà®ķà®®": 1210,
      "Ġà®Ĵà®±": 1211,
      "Ġ28": 1212,
      "Ġ2001": 1213,
      "à®ħà®°à®ļ": 1214,
      "%,": 1215,
      "à®īà®°": 1216,
      "www": 1217,
      "à®ħà®±": 1218,
      "à®²à®¯à®®": 1219,
      "Ġà®ļà®®à®¯": 1220,
      "Ġà®İà®Ļ": 1221,
      "Ġà®ħà®°à®ļà®©": 1222,
      "40": 1223,
      "à¯Ĩ.": 1224,
      "ĠCh": 1225,
      "Ġà®ĩà®¸": 1226,
      "Ġà®ļà®®à®¯à®®": 1227,
      "à®¤à®³": 1228,
      "à®ªà®Łà®ķ": 1229,
      "--": 1230,
      "est": 1231,
      "à®°à®ªà®²à®®": 1232,
      "à®®à®Ł": 1233,
      "25": 1234,
      "Ġà®ļà®µ": 1235,
      "Ġà®īà®¯à®°à®¤": 1236,
      "ev": 1237,
      "à®¯à®ķà®°": 1238,
      "oc": 1239,
      "à®ķà®£à®®": 1240,
      "Ġà®ħà®¯": 1241,
      "Ġà®ħà®ŀ": 1242,
      "Ġ40": 1243,
      "Ġà®ĩà®°à®µ": 1244,
      "Ġà®ªà®¯à®£à®®": 1245,
      "Ġà®ħà®Łà®°": 1246,
      "à®²à®ķà®®": 1247,
      "à¯į).": 1248,
      "Ġà®¤à®³à®¤": 1249,
      "Ġ187": 1250,
      "à®·à®©": 1251,
      "à¯Ī\"": 1252,
      "Ġà®ħà®®à®°": 1253,
      "age": 1254,
      "à®ķà®µà®°": 1255,
      "Ġà®ħà®°à®ª": 1256,
      "Ġà®Ĩà®´": 1257,
      "Ġà®ĩà®±à®ķ": 1258,
      "ical": 1259,
      "23": 1260,
      "ory": 1261,
      "Ġà®ĩà®³à®µà®°": 1262,
      "à®Łà®ķà®Ļ": 1263,
      "187": 1264,
      "60": 1265,
      "Ġfor": 1266,
      "Ġto": 1267,
      "à®ĩà®Ļ": 1268,
      "Ġà®µà®°à®µ": 1269,
      "2006": 1270,
      "art": 1271,
      "Ġà®īà®²à®ķà®®": 1272,
      "Ġà®®à®¯": 1273,
      "Ġà®µà®±": 1274,
      "Ġà®ķà®´à®ķà®®": 1275,
      "Ġon": 1276,
      "Ġg": 1277,
      "Ġà®®à®°à®®": 1278,
      "ish": 1279,
      "Ġà®¤à®°à®ª": 1280,
      "à®©à®Ł": 1281,
      "à®ļà®µ": 1282,
      "à®ĩà®ļ": 1283,
      "ĠâĢľ": 1284,
      "ary": 1285,
      "à®Łà®²à®¤": 1286,
      "Ġ2011": 1287,
      "Ġà®®à®£à®®": 1288,
      "Ġ2004": 1289,
      "à®Łà®³": 1290,
      "Ġh": 1291,
      "à®ªà®¯": 1292,
      "ect": 1293,
      "Ġà®ĩà®°à®¯": 1294,
      "Ġà®ĩà®¯à®¨": 1295,
      "ĠUn": 1296,
      "Ġ29": 1297,
      "ics": 1298,
      "if": 1299,
      "Ġ2008": 1300,
      "Ġà®Ĩà®²à®¯à®®": 1301,
      "ber": 1302,
      "à®©à®ļ": 1303,
      "Ġ[": 1304,
      "Ġà®Ĩà®©à®¤": 1305,
      "Ġà®¤à®²à®®": 1306,
      "Ġà®¨à®¨": 1307,
      "24": 1308,
      "à®Łà®ķà®¤": 1309,
      "à®ĩà®ª": 1310,
      "Ġà®ħà®°à®Ļ": 1311,
      "Ġà®ĩà®©à®Ļ": 1312,
      "all": 1313,
      "à®®à®²à®°": 1314,
      "à®Łà®ķà®°": 1315,
      "à®³à®ķà®°": 1316,
      "Ġà®®à®ŀ": 1317,
      "ok": 1318,
      "à®¤à®´": 1319,
      "à®ªà®´": 1320,
      "Ġà®¤à®µà®±": 1321,
      "à®¤à®ķà®®": 1322,
      "our": 1323,
      "Ġà®µà®®": 1324,
      "Ġst": 1325,
      "Ġà®ĩà®µà®©": 1326,
      "à®ĩà®±à®ª": 1327,
      "à®İà®Ł": 1328,
      "ive": 1329,
      "ran": 1330,
      "ies": 1331,
      "Ġà®ļà®¤à®µ": 1332,
      "Ġà®µà®¤": 1333,
      "Ġà®ļà®²": 1334,
      "ign": 1335,
      "ĉĉ": 1336,
      "'s": 1337,
      "Ġv": 1338,
      "à®±à®°": 1339,
      "qu": 1340,
      "à®¤à®µà®©": 1341,
      "rom": 1342,
      "à®²à®¨à®Ł": 1343,
      "Ġà®īà®´": 1344,
      "à®ľà®ķ": 1345,
      "à®ªà®µà®±": 1346,
      "Ġà®¤à®³à®®": 1347,
      "Ġ186": 1348,
      "Ġà®ķà®®à®²": 1349,
      "ell": 1350,
      "à®ħà®ķ": 1351,
      "Ġà®ĩà®´à®¨": 1352,
      "ath": 1353,
      "80": 1354,
      "à®Ĩà®ķ": 1355,
      "Ġ/": 1356,
      "Ġà®ĩà®©à®¤": 1357,
      "à®ħà®£": 1358,
      "ĠAn": 1359,
      "ational": 1360,
      "%)": 1361,
      "à®¤à®©à®®": 1362,
      "Ġà®Ĳà®¤à®°": 1363,
      "Ġ1990": 1364,
      "olog": 1365,
      "à®ļà®ķà®°": 1366,
      "Ġà®ħà®°à®£": 1367,
      "Ġà®Ĩà®©à®¨": 1368,
      "ep": 1369,
      "Ġà®ļà®®à®®": 1370,
      "Ġà®¤à®³à®ªà®¤": 1371,
      "à®²à®ķà®Ł": 1372,
      "ment": 1373,
      "Ġà®ĩà®³à®®": 1374,
      "Ġà®ļà®±": 1375,
      "Ġ60": 1376,
      "eb": 1377,
      "Ġr": 1378,
      "à®Ĩà®©": 1379,
      "à®°à®£à®Ļ": 1380,
      "Ġà®īà®©": 1381,
      "ort": 1382,
      "Ġà®ĩà®²à®Ł": 1383,
      "à®Īà®´à®¤": 1384,
      "28": 1385,
      "Ġà®°à®¤": 1386,
      "à®¯à®¸": 1387,
      "Ġ&": 1388,
      "Ġà®ħà®ķà®°": 1389,
      "ant": 1390,
      "ĠAr": 1391,
      "à®¾-": 1392,
      "Ġà®ĩà®°à®Ł": 1393,
      "org": 1394,
      "à¯įâĢĻ": 1395,
      "à®¯à®®à®Ł": 1396,
      "2005": 1397,
      "ure": 1398,
      "90": 1399,
      "à®ķà®ªà®Ł": 1400,
      "Ġà®ĩà®²à®¤": 1401,
      "à®°à®£à®¤": 1402,
      "Ġà®ıà®±à®¤": 1403,
      "Ġà®®à®°à®Ļ": 1404,
      "à®īà®²à®ķ": 1405,
      "à¯Ī-": 1406,
      "à®µà®®à®©": 1407,
      "Ġà®ħà®Łà®ķ": 1408,
      "à®İà®²": 1409,
      "Ġ35": 1410,
      "à®¤à®¯": 1411,
      "à®ļà®³": 1412,
      "à®ªà®Łà®²": 1413,
      "Th": 1414,
      "Ġà®¤à®´": 1415,
      "Ġà®·à®Ł": 1416,
      "27": 1417,
      "Ġà®ķà®µà®°": 1418,
      "ith": 1419,
      "Ġ2009": 1420,
      "à®¤à®³à®¤": 1421,
      "Ġ2003": 1422,
      "Ġà®ªà®²à®µ": 1423,
      "Ġà®¨à®ļ": 1424,
      "ric": 1425,
      "Ġà®ļà®©à®µà®°": 1426,
      "26": 1427,
      "à®ĩà®ķ": 1428,
      "à®¯à®³": 1429,
      "à®Ĳà®ķ": 1430,
      "ec": 1431,
      "ast": 1432,
      "und": 1433,
      "up": 1434,
      "48": 1435,
      "à¯ĭ-": 1436,
      "à®±à®ļ": 1437,
      "Ġà®°à®µ": 1438,
      "à®°à®¯": 1439,
      "à®µà®¤à®®": 1440,
      "185": 1441,
      "Ġ1980": 1442,
      "45": 1443,
      "à®¤à®ªà®Ł": 1444,
      "ind": 1445,
      "Ġ2002": 1446,
      "ib": 1447,
      "Ġà®ªà®´à®ķ": 1448,
      "ip": 1449,
      "à®¾\"": 1450,
      "à®Łà®²à®®": 1451,
      "99": 1452,
      "ear": 1453,
      "à®Łà®¨": 1454,
      "Ġby": 1455,
      "ivers": 1456,
      "Ġ185": 1457,
      "ĠPr": 1458,
      "Ġà®ķà®²à®ª": 1459,
      "ction": 1460,
      "32": 1461,
      "70": 1462,
      "à®ļà®®à®®": 1463,
      "ug": 1464,
      "Ġà®ķà®ļ": 1465,
      "Ġà®Ĩà®¨": 1466,
      "à®®à®¸": 1467,
      "à®ĩà®®": 1468,
      "35": 1469,
      "à®ĩà®°à®£": 1470,
      "36": 1471,
      "ff": 1472,
      "Ġà®ħà®ķà®¤": 1473,
      "Ġà®ľà®©à®µà®°": 1474,
      "à¯į/": 1475,
      "Ġà®®à®°à®¤": 1476,
      "à®ħà®ª": 1477,
      "Ġà®Ĭà®ķ": 1478,
      "ial": 1479,
      "à®¤à®²à®¤": 1480,
      "Ġà®İà®¯": 1481,
      "Ġà®ĩà®©à®ª": 1482,
      "Ġà®°à®ķ": 1483,
      "Ġâ": 1484,
      "ey": 1485,
      "Ġor": 1486,
      "ate": 1487,
      "Ġà®Ĩà®ķà®¸": 1488,
      "Ġ80": 1489,
      "à®ķà®³à®®": 1490,
      "tern": 1491,
      "BC": 1492,
      "ry": 1493,
      "Ġà®ıà®µ": 1494,
      "ob": 1495,
      "Ġà®ļà®®à®°": 1496,
      "2004": 1497,
      "Ġà®ľà®ª": 1498,
      "à®£à®ļ": 1499,
      "Ġà®ıà®ķ": 1500,
      "ass": 1501,
      "2001": 1502,
      "à®²à®¸": 1503,
      "2007": 1504,
      "ĠEn": 1505,
      "Ġà®®à®ļ": 1506,
      "1980": 1507,
      "29": 1508,
      "à®ļà®£": 1509,
      "Ġ1000": 1510,
      "Ġà®¤à®©à®ķ": 1511,
      "The": 1512,
      "à®ķà®³à®ª": 1513,
      "37": 1514,
      "Ġà®ľà®®": 1515,
      "Ġà®ļà®°à®£": 1516,
      "à®¤à®£": 1517,
      "ence": 1518,
      "ĠInd": 1519,
      "à®µà®³à®µ": 1520,
      "Ġà®Ĩà®ķà®¤": 1521,
      "Ġà®µà®³à®®": 1522,
      "à®Ĩà®ļ": 1523,
      "à®°à®ļà®©": 1524,
      "à®ĩà®±": 1525,
      "Ġ1999": 1526,
      "à¥": 1527,
      "Ġ1960": 1528,
      "Ġà®¤à®°à®®": 1529,
      "à®ªà®µà®©": 1530,
      "à®¨à®²": 1531,
      "Ġà®ªà®°à®¨": 1532,
      "Ġat": 1533,
      "à®·à®ªà®®": 1534,
      "Ġà®ħà®ķà®±": 1535,
      "ĠTamil": 1536,
      "ord": 1537,
      "Ġà®¨à®°": 1538,
      "46": 1539,
      "per": 1540,
      "ĠY": 1541,
      "Ġà®Ĩà®µà®°": 1542,
      "Ġ45": 1543,
      "à®µà®µ": 1544,
      "39": 1545,
      "à®Łà®³à®µ": 1546,
      "ubl": 1547,
      "Ġ×": 1548,
      "Ġà®ĩà®Łà®ª": 1549,
      "Ġ31": 1550,
      "1990": 1551,
      "Ġ2010": 1552,
      "ook": 1553,
      "Ġ2014": 1554,
      "Ġà®īà®Ļ": 1555,
      "ĠĠĠĠĠĠĠĠĠĠĠĠĠĠĠĠĠĠĠĠĠĠĠĠĠĠĠĠĠĠĠĠ": 1556,
      "47": 1557,
      "à®īà®¯": 1558,
      "ĠOn": 1559,
      "Ġà®īà®µà®®": 1560,
      "Ġà®İà®©à®²": 1561,
      "Ġà®¨à®Łà®°": 1562,
      "à´": 1563,
      "Ġx": 1564,
      "à®²à®£": 1565,
      "Ġà®ķà®Łà®®": 1566,
      "à¯Ģ;": 1567,
      "ite": 1568,
      "Ġ1996": 1569,
      "Ġà®ħà®¯à®°": 1570,
      "à®ľà®¯à®ķ": 1571,
      "à®Łà®ªà®®": 1572,
      "Ġà®¹à®°": 1573,
      "Ġà®ķà®²à®µ": 1574,
      "Ġà®®à®©à®®": 1575,
      "ong": 1576,
      "Ġ59": 1577,
      "ill": 1578,
      "ik": 1579,
      "Ġà®ªà®¯à®©à®°": 1580,
      "à®¿'": 1581,
      "Ġà®°à®ļ": 1582,
      "Ġ70": 1583,
      "1981": 1584,
      "31": 1585,
      "ork": 1586,
      "ĠNew": 1587,
      "ont": 1588,
      "75": 1589,
      "38": 1590,
      "à®ķà®®à®¤": 1591,
      "à®Ĩà®µà®¤": 1592,
      "49": 1593,
      "65": 1594,
      "Ġà®ħà®¯à®©": 1595,
      "ism": 1596,
      "Ġ2013": 1597,
      "Ġà®ħà®µà®ļ": 1598,
      "Ġfrom": 1599,
      "ust": 1600,
      "Ġà®Ĳà®¯à®°": 1601,
      "Ġ90": 1602,
      "ain": 1603,
      "iversity": 1604,
      "Ġà®¨à®Łà®ķ": 1605,
      "Ġ1970": 1606,
      "ight": 1607,
      "à®¨à®®": 1608,
      "à®¤à®°à®©": 1609,
      "Ġà®ĩà®©à®®": 1610,
      "Ġà®īà®²à®ķà®¤": 1611,
      "1979": 1612,
      "1984": 1613,
      "eg": 1614,
      "à®ĩà®²à®ķ": 1615,
      "ern": 1616,
      "Ġà®µà®£à®Ļ": 1617,
      "Ġre": 1618,
      "à¯ģ'": 1619,
      "Ġà®ķà®µà®©": 1620,
      "à®¨à®ķà®°à®¤": 1621,
      "2008": 1622,
      "à®©à®ŀ": 1623,
      "Ġà®®à®¤à®¤": 1624,
      "Ġà®Ĭà®¤": 1625,
      "Ġ1984": 1626,
      "1960": 1627,
      "34": 1628,
      "In": 1629,
      "Ġà®®à®Łà®Ļ": 1630,
      "à®¤à®°à®µ": 1631,
      "ld": 1632,
      "ack": 1633,
      "à®ľà®ª": 1634,
      "ens": 1635,
      "76": 1636,
      "hy": 1637,
      "Ġà®ļà®ŀ": 1638,
      "à®¯à®ķà®©": 1639,
      "Ġà®ķà®´à®ķà®¤": 1640,
      "à®²à®¯à®Ļ": 1641,
      "Ġà®ĩà®´à®ª": 1642,
      "Ġà®ĵà®¯": 1643,
      "Ġà®ĩà®±à®Ļ": 1644,
      "2003": 1645,
      "Ġ()": 1646,
      "à®ĩà®¯à®±": 1647,
      "à®ļà®©à®Ļ": 1648,
      "ult": 1649,
      "33": 1650,
      "Ġà®īà®ķ": 1651,
      "Ġà®ĩà®²à®£": 1652,
      "Ġà®ħà®²à®Ļ": 1653,
      "Ġà®īà®ªà®¯": 1654,
      "Ġà®®à®©à®¤": 1655,
      "2000": 1656,
      "Ġ1981": 1657,
      "raph": 1658,
      "44": 1659,
      "ea": 1660,
      "ĠPro": 1661,
      "Ġ1998": 1662,
      "1944": 1663,
      "à®ªà®¯à®©": 1664,
      "à®ļà®²à®®": 1665,
      "à®ªà®Łà®ª": 1666,
      "Ġà®¤à®Łà®µ": 1667,
      "enter": 1668,
      "ah": 1669,
      "à®ļà®ļ": 1670,
      "1945": 1671,
      "ond": 1672,
      "à®¯à®ķà®¤": 1673,
      "1972": 1674,
      "2013": 1675,
      "ide": 1676,
      "pl": 1677,
      "à®İà®£": 1678,
      "man": 1679,
      "à®İà®´": 1680,
      "Ġ38": 1681,
      "end": 1682,
      "à®¤à®°à®ª": 1683,
      "ank": 1684,
      "Ġà®¤à®³à®Ļ": 1685,
      "ĠTh": 1686,
      "ÂłÂł": 1687,
      "Ġà®İà®©à®¤": 1688,
      "iz": 1689,
      "sp": 1690,
      "Ġ1991": 1691,
      "1971": 1692,
      "Ġ2015": 1693,
      "ge": 1694,
      "uc": 1695,
      "uth": 1696,
      "Ġà®ļà®®à®¯à®Ļ": 1697,
      "Ġ1979": 1698,
      "à®¤à®²à®Ļ": 1699,
      "95": 1700,
      "ĠĠĠĊ": 1701,
      "2002": 1702,
      "à®ļà®¯": 1703,
      "Ġ1965": 1704,
      "ology": 1705,
      "à®£à®¯": 1706,
      "Ġà®¤à®ļ": 1707,
      "Ġà®¨à®°à®®": 1708,
      "à®ĩà®³": 1709,
      "à®īà®³": 1710,
      "1974": 1711,
      "1978": 1712,
      "Ġà®¨à®°à®ļ": 1713,
      "à®´à®Ļ": 1714,
      "Ġà®Ĵà®ķ": 1715,
      "42": 1716,
      "ele": 1717,
      "Ġà®ªà®£à®®": 1718,
      "à®ķà®´à®ķ": 1719,
      "1941": 1720,
      "à®¯à®³à®µ": 1721,
      "ations": 1722,
      "98": 1723,
      "io": 1724,
      "Ġà®īà®¨": 1725,
      "à®¨à®ķà®°à®Ļ": 1726,
      "Ġ1978": 1727,
      "Ġ1997": 1728,
      "1940": 1729,
      "à®®à®°à®ª": 1730,
      "rit": 1731,
      "à®µà®°à®©": 1732,
      "à®¯à®²à®²": 1733,
      "ĠCom": 1734,
      "Ġà®İà®±": 1735,
      "Ġà®ªà®²à®®": 1736,
      "cl": 1737,
      "à®µà®ķà®®": 1738,
      "align": 1739,
      "pt": 1740,
      "à¯Ī;": 1741,
      "Ġà®®à®¤à®®": 1742,
      "à®ħà®¨": 1743,
      "Ġà®ļà®®à®µ": 1744,
      "Ġà®µà®²à®¤": 1745,
      "Ġà®µà®ļà®¨": 1746,
      "Ġà®Ĩà®´à®®": 1747,
      "Ġ2012": 1748,
      "Ġ1977": 1749,
      "Ġà®ªà®Łà®ķ": 1750,
      "1975": 1751,
      "1977": 1752,
      "istory": 1753,
      "Ġà®®à®ķà®°": 1754,
      "Ġà®īà®²à®ķà®ķ": 1755,
      "Ġ1995": 1756,
      "Ġ150": 1757,
      "oh": 1758,
      "ĠĠĠĠĠĠĠĠĠĠĠĠ": 1759,
      "88": 1760,
      "96": 1761,
      "1942": 1762,
      "angu": 1763,
      "à®®à®µ": 1764,
      "180": 1765,
      "1991": 1766,
      "à¯įâĢĿ": 1767,
      "à®µà®ķà®Ļ": 1768,
      "Ġà®ķà®Łà®©": 1769,
      "Ġ2016": 1770,
      "Ġ1971": 1771,
      "à®Ĩà®Ł": 1772,
      "1973": 1773,
      "1976": 1774,
      "Ġà®ķà®¯": 1775,
      "à¯ĭ.": 1776,
      "Ġà®ªà®¯à®£à®¤": 1777,
      "pr": 1778,
      "Ġà®ķà®©à®µ": 1779,
      "1999": 1780,
      "ss": 1781,
      "ĪĴ": 1782,
      "Ġà®Łà®ļ": 1783,
      "ef": 1784,
      "int": 1785,
      "à®İà®ļ": 1786,
      "1997": 1787,
      "à®£à®±": 1788,
      "2009": 1789,
      "78": 1790,
      "à®²à®ķà®Ļ": 1791,
      "43": 1792,
      "Ġà®°à®¯": 1793,
      "2012": 1794,
      "à®³à®µà®°": 1795,
      "à®£à®¯à®Ļ": 1796,
      "à®¯à®²à®®": 1797,
      "Ġà®°à®·": 1798,
      "ly": 1799,
      "à®¤à®ķà®¤": 1800,
      "à®µà®²à®ķà®®": 1801,
      "à®Īà®°": 1802,
      "56": 1803,
      "à®®à®ķà®©": 1804,
      "à®µà®°à®µ": 1805,
      "Ġà®ĩà®°à®ļ": 1806,
      "à®ķà®°à®ļà®°": 1807,
      "Ġà®°à®Ļ": 1808,
      "ich": 1809,
      "Ġ1975": 1810,
      "à®³à®ļ": 1811,
      "à®ļà®®à®¯à®®": 1812,
      "à®ķà®µà®©": 1813,
      "Ġ36": 1814,
      "à®ªà®©à®µ": 1815,
      "1998": 1816,
      "1989": 1817,
      "Ġ1994": 1818,
      "1970": 1819,
      "41": 1820,
      "II": 1821,
      "1965": 1822,
      "à®ķà®Łà®¤": 1823,
      "à®īà®¤": 1824,
      "2014": 1825,
      "à®Łà®µà®£": 1826,
      "pe": 1827,
      "Ġà®ĥ": 1828,
      "Ġà®İà®²à®ķ": 1829,
      "à®ħà®ļ": 1830,
      "à®¾?": 1831,
      "Ġ32": 1832,
      "ram": 1833,
      "à®ķà®²à®©": 1834,
      "à®ªà®°à®Ļ": 1835,
      "Ġà®ĵà®ļ": 1836,
      "ĠUniversity": 1837,
      "à®ħà®µà®°": 1838,
      "à®Ĩà®¯": 1839,
      "ĠSo": 1840,
      "Ġ1973": 1841,
      "à®Ĳà®°": 1842,
      "à¯į..": 1843,
      "à®ªà®¤à®®": 1844,
      "Ġà®īà®³à®µ": 1845,
      "à®£à®®à®²": 1846,
      "à®©à®¸": 1847,
      "Ġà®Ĩà®ĥà®ª": 1848,
      "à®Ĩà®¸": 1849,
      "à®Ĩà®°à®®": 1850,
      "1969": 1851,
      "Ġà®¨à®Łà®©à®®": 1852,
      "à®©à®´": 1853,
      "1987": 1854,
      "ech": 1855,
      "Ġà®±": 1856,
      "à®ªà®µà®®": 1857,
      "Ġà®Ĳà®ļ": 1858,
      "\")": 1859,
      "orld": 1860,
      "Ġ75": 1861,
      "à®ªà®ŀ": 1862,
      "à®ħà®µ": 1863,
      "Ġà®ħà®µà®©à®¤": 1864,
      "ograph": 1865,
      "à®¾:": 1866,
      "à¯Ĥ.": 1867,
      "à®Ĩà®ª": 1868,
      "à®°à®ªà®²": 1869,
      "Ġ$": 1870,
      "à®µà®°à®ª": 1871,
      "à®ĩà®£": 1872,
      "à®ķà®´à®ķà®Ļ": 1873,
      "Ġ300": 1874,
      "Ġ180": 1875,
      "2015": 1876,
      "1992": 1877,
      "1967": 1878,
      "htm": 1879,
      "This": 1880,
      "ru": 1881,
      "à®ķà®²à®¤": 1882,
      "à®¤à®³à®µ": 1883,
      "ile": 1884,
      "orm": 1885,
      "1948": 1886,
      "ĠÎ": 1887,
      "à®ĩà®µà®°à®¤": 1888,
      "à®ķà®©à®µ": 1889,
      "Ġ1976": 1890,
      "1943": 1891,
      "Ġ1989": 1892,
      "Ġpro": 1893,
      "Ġà®ļà®Łà®Ļ": 1894,
      "Ġà®ķà®²à®ķ": 1895,
      "1947": 1896,
      "Ġ1959": 1897,
      "Ġà®ļà®ļ": 1898,
      "ore": 1899,
      "Ġ1950": 1900,
      "ext": 1901,
      "77": 1902,
      "à®ħà®Ļ": 1903,
      "ann": 1904,
      "Ġà®²à®ķ": 1905,
      "Ġ51": 1906,
      "55": 1907,
      "An": 1908,
      "à®¤à®¤à®±": 1909,
      "1959": 1910,
      "Ch": 1911,
      "uk": 1912,
      "à®²à®²": 1913,
      "ata": 1914,
      "ice": 1915,
      "Ġ48": 1916,
      "Ġ500": 1917,
      "Ġ1992": 1918,
      "2010": 1919,
      "1996": 1920,
      "1957": 1921,
      "à®¤à®³à®Ļ": 1922,
      "à®Łà®ªà®¤": 1923,
      "à®ªà®´à®®": 1924,
      "ĠAl": 1925,
      "Ġà®ķà®µà®©à®®": 1926,
      "Ġà®µà®¯à®²": 1927,
      "Ġà®İà®ŀ": 1928,
      "1994": 1929,
      "1950": 1930,
      "1956": 1931,
      "Ġis": 1932,
      "à®²à®¯": 1933,
      "à®ķà®³à®ŀ": 1934,
      "Ġ1974": 1935,
      "1966": 1936,
      "à®®à®£à®¤": 1937,
      "à®¤à®©à®¤": 1938,
      "Ġà®ļà®®à®¸": 1939,
      "Ġ1972": 1940,
      "à®°à®ķà®®": 1941,
      "Ġà®Łà®©": 1942,
      "Ġà®ļà®®à®ļ": 1943,
      "Ġ49": 1944,
      "Ġ1987": 1945,
      "Ġà®Ĭà®Łà®ķà®µ": 1946,
      "Ã©": 1947,
      "à®¯à®µà®©": 1948,
      "à®Ĩà®±": 1949,
      "à®İà®¤": 1950,
      "1964": 1951,
      "Ġ1958": 1952,
      "67": 1953,
      "aj": 1954,
      "Ġà®²à®£": 1955,
      "1995": 1956,
      "Ġ1940": 1957,
      "64": 1958,
      "Day": 1959,
      "à®®à®ķà®³": 1960,
      "à®µà®£à®©": 1961,
      "à®ķà®®à®²": 1962,
      "à®īà®²": 1963,
      "Ġ1962": 1964,
      "1946": 1965,
      "oun": 1966,
      "yst": 1967,
      "ĠPubl": 1968,
      "1963": 1969,
      "1953": 1970,
      "1954": 1971,
      "ĠOnThis": 1972,
      "ĠOnThisDay": 1973,
      "à®°à®ķà®¤": 1974,
      "ĠX": 1975,
      "à®ķà®¸": 1976,
      "à®Łà®¯à®Ļ": 1977,
      "à®²à®±": 1978,
      "Ġà®µà®°à®®": 1979,
      "Ġà®ĩà®©à®ķ": 1980,
      "Ġ1967": 1981,
      "1939": 1982,
      "):": 1983,
      "act": 1984,
      "sh": 1985,
      "1961": 1986,
      "Ġ1930": 1987,
      "Ġà®µà®³à®Ļ": 1988,
      "85": 1989,
      "ple": 1990,
      "à®ħà®´": 1991,
      "Ġà®®à®°à®£à®®": 1992,
      "Ġà®ĩà®³à®µà®°à®ļà®°": 1993,
      "Ġà®ªà®²à®¤": 1994,
      "à®ķà®³à®µà®°": 1995,
      "Ġ400": 1996,
      "Ġà®Ĳà®¤à®°à®ļà®©": 1997,
      "oth": 1998,
      "2016": 1999,
      "1962": 2000,
      "1968": 2001,
      "Ġ1947": 2002,
      "à®¤à®¸": 2003,
      "Ġy": 2004,
      "à®¤à®¤à®©": 2005,
      "ee": 2006,
      "Ġà®ªà®²à®µà®ķ": 2007,
      "1949": 2008,
      "72": 2009,
      "center": 2010,
      "à®ªà®²à®ķ": 2011,
      "à®®à®¯": 2012,
      "à®ĩà®¯": 2013,
      "Ġà®ªà®²à®ķ": 2014,
      "68": 2015,
      "à¯ģ),": 2016,
      "ition": 2017,
      "92": 2018,
      "à®ķà®µà®¤": 2019,
      "à®ªà®ķà®¤": 2020,
      "à®¯à®©à®µ": 2021,
      "erv": 2022,
      "à®ķà®Łà®µ": 2023,
      "Ġ1993": 2024,
      "1993": 2025,
      "1958": 2026,
      "Ġà®µà®¯": 2027,
      "Ġ33": 2028,
      "Ġà®®à®£à®¨": 2029,
      "\"|": 2030,
      "Ġà®ªà®ª": 2031,
      "Ġ($": 2032,
      "Ġà®Ĭà®±": 2033,
      "ement": 2034,
      "à®±à®³à®µ": 2035,
      "Ġà®Ĩà®ªà®¤": 2036,
      "à®¯à®°à®Ļ": 2037,
      "Ġà®īà®Łà®±": 2038,
      "97": 2039,
      "Ġk": 2040,
      "à¯Ģ,": 2041,
      "à®ĩà®Ł": 2042,
      "à®Łà®¸": 2043,
      "Ġ1948": 2044,
      "Ġ;": 2045,
      "Ġà®Ĭà®´": 2046,
      "1988": 2047,
      "Ġ1966": 2048,
      "mer": 2049,
      "à®µà®³à®°": 2050,
      "Ġ1983": 2051,
      "cy": 2052,
      "hi": 2053,
      "à®²à®¯à®¤": 2054,
      "Ġ1969": 2055,
      "Ġ1945": 2056,
      "à®°à®ľà®©": 2057,
      "à®´à®µ": 2058,
      "Ġà®ĵà®®": 2059,
      "1986": 2060,
      "Ġ1986": 2061,
      "Ġ1956": 2062,
      "1937": 2063,
      "Ġà¤": 2064,
      "Ġà®ªà®®": 2065,
      "Ġà®ħà®ķà®´": 2066,
      "Ġ1920": 2067,
      "à®¹à®°": 2068,
      "anguage": 2069,
      "58": 2070,
      "bo": 2071,
      "à®±à®Ł": 2072,
      "Ġà®ħà®ķà®²à®®": 2073,
      "hem": 2074,
      "Ġwith": 2075,
      "yn": 2076,
      "Ġà®īà®²à®ķà®³": 2077,
      "1982": 2078,
      "ae": 2079,
      "Ġ(\"": 2080,
      "ance": 2081,
      "ue": 2082,
      "Ġà®İà®µà®°": 2083,
      "à®¤à®©à®©": 2084,
      "ĠâĢĶ": 2085,
      "Ġà®ķà®£à®ªà®¤": 2086,
      "Ġà®ļà®®à®¨": 2087,
      "are": 2088,
      "1983": 2089,
      "Ġ1964": 2090,
      "500": 2091,
      "94": 2092,
      "à¯į!": 2093,
      "à®¿),": 2094,
      "à®¤à®ŀ": 2095,
      "Ġà®®à®°à®£à®¤": 2096,
      "Ġ1985": 2097,
      "Ġ{": 2098,
      "à®°à®µà®©": 2099,
      "à®¾à¯į": 2100,
      "Ġ1988": 2101,
      "à®²à®µà®©": 2102,
      "à¯Ī'": 2103,
      "ons": 2104,
      "able": 2105,
      "87": 2106,
      "BB": 2107,
      "oog": 2108,
      "Ġà®ªà®´à®©": 2109,
      "1952": 2110,
      "à®¤à®ķà®Ļ": 2111,
      "Ġà®¨à®Łà®ª": 2112,
      "1936": 2113,
      "61": 2114,
      "ium": 2115,
      "à®¯à®£à®©": 2116,
      "à®¨à®µ": 2117,
      "1955": 2118,
      "...": 2119,
      "----": 2120,
      "Ġà®ħà®¸": 2121,
      "Ġà®ĵà®°à®³à®µ": 2122,
      "Ġ1961": 2123,
      "82": 2124,
      "ĠCol": 2125,
      "1985": 2126,
      "1930": 2127,
      "à®ĥà®ķ": 2128,
      "ĠĠĠĠĊ": 2129,
      "Ġ52": 2130,
      "oogle": 2131,
      "aw": 2132,
      "iss": 2133,
      "Ġ1982": 2134,
      "Ġ1952": 2135,
      "ace": 2136,
      "ous": 2137,
      "Ġ1918": 2138,
      "Ġ1968": 2139,
      "à®Ĭà®°": 2140,
      ".,": 2141,
      "100": 2142,
      "ost": 2143,
      "à®ķà®°à®Ļ": 2144,
      "rans": 2145,
      "ystem": 2146,
      "93": 2147,
      "St": 2148,
      "Ġ*": 2149,
      "Ġà®µà®ļà®©à®®": 2150,
      "Ġà®ķà®£à®®": 2151,
      "Ġà®Ĩà®°à®£": 2152,
      "57": 2153,
      "à®£à®¯à®®": 2154,
      "à¯ĩ\"": 2155,
      "ĠHistory": 2156,
      "ĠIntern": 2157,
      "Ġan": 2158,
      "à®ľà®ļ": 2159,
      "à®¿(": 2160,
      "Ġ72": 2161,
      "Ġ1953": 2162,
      "ĠPress": 2163,
      "Ġà®Ĳà®®": 2164,
      "66": 2165,
      "à®©à®ļà®®": 2166,
      "Ġà®¤à®®à®ķ": 2167,
      "1918": 2168,
      "amb": 2169,
      "à®Łà®Ł": 2170,
      "als": 2171,
      "Ġà®Ĩà®µà®£à®Ļ": 2172,
      "Ġcom": 2173,
      ");": 2174,
      "91": 2175,
      "à®µà®´à®ķ": 2176,
      "ĠSh": 2177,
      "à¯ģ).": 2178,
      "row": 2179,
      "83": 2180,
      "à®ķà®Łà®®": 2181,
      "à®ķà®Łà®©": 2182,
      "Ġà®ĩà®³à®Ļ": 2183,
      "à®ķà®°à®ª": 2184,
      "à®ķà®²à®ª": 2185,
      "att": 2186,
      "Ġ37": 2187,
      "Ġà®ļà®°à®ķ": 2188,
      "Ġ47": 2189,
      "à®ªà®²à®®": 2190,
      "Ġà®ķà®²à®Ļ": 2191,
      "Ġà®Ĳà®ª": 2192,
      "à®Ĵà®³": 2193,
      "Ġ1963": 2194,
      "az": 2195,
      "net": 2196,
      "à®īà®±": 2197,
      "à®Ĵà®²": 2198,
      "Ġ1957": 2199,
      "ron": 2200,
      "yle": 2201,
      "Ġà®©": 2202,
      "Ġà®ķà®³à®Ļ": 2203,
      "à¯į.\"": 2204,
      "Ġà®¯à®®": 2205,
      "ase": 2206,
      "ail": 2207,
      "Ġà®ķà®£à®µà®©": 2208,
      "Ġà®®à®°à®ķ": 2209,
      "cc": 2210,
      "ãĢ": 2211,
      "arth": 2212,
      "à®¨à®ķà®°à®ª": 2213,
      "Ġ65": 2214,
      "ĠGe": 2215,
      "1933": 2216,
      "1938": 2217,
      "62": 2218,
      "à®µà®ŀ": 2219,
      "Ġà®®à®¹": 2220,
      "à®ķà®©à®Ł": 2221,
      "hed": 2222,
      "à®ķà®µà®¤à®°": 2223,
      "à®µà®ļà®®": 2224,
      "Ġà®¤à®µà®®": 2225,
      "à¯ģ..": 2226,
      "à®±à®¨à®ķà®°": 2227,
      "Ġà®ªà®±à®ķ": 2228,
      "Ġà®®à®°à®ªà®£": 2229,
      "à®ıà®ª": 2230,
      "à®µà®ķà®¤": 2231,
      "à®ļà®¸": 2232,
      "ict": 2233,
      "à®ķà®£à®¤": 2234,
      "Ġ2018": 2235,
      "ãĢĢ": 2236,
      "05": 2237,
      "ie": 2238,
      "ood": 2239,
      "à¯į?": 2240,
      "à®ªà®°à®¤": 2241,
      "ated": 2242,
      "Ġà®ķà®µà®©à®¤": 2243,
      "se": 2244,
      "Ġà®®à®£à®²": 2245,
      "à®¾'": 2246,
      "Ġà®ªà®ķà®²": 2247,
      "Ġà®ħà®ķà®µ": 2248,
      "ica": 2249,
      "ages": 2250,
      "à®ļà®©à®¤": 2251,
      "Ġà®īà®²à®°": 2252,
      "Ġ64": 2253,
      "Ġ85": 2254,
      "Ġ2019": 2255,
      "Ġ2021": 2256,
      "86": 2257,
      "âĪĴ": 2258,
      "à¯ģ(": 2259,
      "à®¤à®ķà®°": 2260,
      "à®ļà®ķà®®": 2261,
      "Ġà®¨à®¯": 2262,
      "1920": 2263,
      "ĠĠĠĠĠĠĠ": 2264,
      "eng": 2265,
      "Ġ...": 2266,
      "Ġ1939": 2267,
      "bert": 2268,
      "ohn": 2269,
      "Ġe": 2270,
      "Ġà®µà®°à®ª": 2271,
      "Ġà®Łà®ª": 2272,
      "à®İà®ķ": 2273,
      "1951": 2274,
      "1935": 2275,
      "les": 2276,
      "Ġas": 2277,
      "à®¯à®®à®²": 2278,
      "Ġà®ıà®Ł": 2279,
      "Ġ34": 2280,
      "ĠEx": 2281,
      "Ġà®ĩà®³à®µà®°à®ļ": 2282,
      "ĠEng": 2283,
      "02": 2284,
      "89": 2285,
      "à®°à®¤à®¤": 2286,
      "à®ķà®°à®µà®°": 2287,
      "Ġà®°à®®": 2288,
      "Ġà®°à®ľ": 2289,
      "Ġà®²à®¤": 2290,
      "ark": 2291,
      "Ġà®Īà®¸": 2292,
      "à¯į\",": 2293,
      "Ġ1954": 2294,
      "à®Łà®Łà®ķ": 2295,
      "Ġà®ªà®°à®¤": 2296,
      "ree": 2297,
      "ography": 2298,
      "Ġà®Īà®²": 2299,
      "lect": 2300,
      "Ġ2017": 2301,
      "Ġde": 2302,
      "07": 2303,
      "81": 2304,
      "ĨĴ": 2305,
      "Ġ1917": 2306,
      "ame": 2307,
      "ural": 2308,
      "ĠEd": 2309,
      "ott": 2310,
      "Ġà®ļà®°à®£à®Ł": 2311,
      "à§": 2312,
      "à®²à®µà®±": 2313,
      "à®¤à®°à®Ļ": 2314,
      "Ġ42": 2315,
      "ĠWorld": 2316,
      "ces": 2317,
      "iew": 2318,
      "à®°à®ŀ": 2319,
      "à¯Ī(": 2320,
      "enn": 2321,
      "à®µà®²à®©": 2322,
      "Ġ44": 2323,
      "ĠPh": 2324,
      "Ġ1955": 2325,
      "Ġà®īà®Łà®©à®Ł": 2326,
      "à®°à®±": 2327,
      "à®Łà®²à®Ļ": 2328,
      "Ġà®¯à®ª": 2329,
      "à®ļà®°à®µ": 2330,
      "Ġà®ªà®£à®¤": 2331,
      "son": 2332,
      "à®²à®ķà®¤": 2333,
      "Ġà®¨à®®à®ķ": 2334,
      "arch": 2335,
      "Ġ1949": 2336,
      "line": 2337,
      "ĠZ": 2338,
      "à®¿/": 2339,
      "à®ķà®©à®®": 2340,
      "à®Łà®µà®©": 2341,
      "à®ªà®¸": 2342,
      "à®¨à®¤": 2343,
      "ach": 2344,
      "à¯Ĥ!": 2345,
      "ĠIndia": 2346,
      "71": 2347,
      "84": 2348,
      "land": 2349,
      "sk": 2350,
      "à®©à®Łà®®": 2351,
      "à®ĩà®³à®®": 2352,
      "ĠArch": 2353,
      "Un": 2354,
      "à®¨à®¨": 2355,
      "à®¤à®°à®¤": 2356,
      "à®·à®®": 2357,
      "1934": 2358,
      "Ġ1941": 2359,
      "ution": 2360,
      "53": 2361,
      "59": 2362,
      "Ġ%)": 2363,
      "Ġà®Ķ": 2364,
      "Ġ1942": 2365,
      "oy": 2366,
      "à®ķà®¯": 2367,
      "à®Ĵà®µ": 2368,
      "Ġ1937": 2369,
      "Ġà®ħà®ķà®°à®µà®°": 2370,
      "ax": 2371,
      "à°": 2372,
      "à®µà®¯à®¤": 2373,
      "Ġ1951": 2374,
      "69": 2375,
      "Al": 2376,
      "à®ªà®µà®Ļ": 2377,
      "Ġà®ķà®³à®®": 2378,
      "Ġà®ķà®´à®ķ": 2379,
      "à®¨à®ªà®°": 2380,
      "Ġà®ªà®¤à®ķ": 2381,
      "Ġà®ıà®±à®ķ": 2382,
      "ater": 2383,
      "Ġ1922": 2384,
      "ral": 2385,
      "Ġ1936": 2386,
      "à®¯à®¤à®³à®®": 2387,
      "Ġà®ªà®²à®µà®±": 2388,
      "Ġà®ľà®µ": 2389,
      "à®İà®Ļ": 2390,
      "à®ªà®´à®Ļ": 2391,
      "ft": 2392,
      "à®Łà®ķà®ķ": 2393,
      "Ġ1938": 2394,
      "ock": 2395,
      "Ġà®ĩà®³à®µà®°à®ļà®©": 2396,
      "74": 2397,
      "Ġ%": 2398,
      "Ġ<": 2399,
      "Ġà®ķà®£à®µà®°": 2400,
      "Ġà®ķà®°à®Ł": 2401,
      "one": 2402,
      "à®īà®Ł": 2403,
      "ĠCan": 2404,
      "amp": 2405,
      "à¥į": 2406,
      "73": 2407,
      "sc": 2408,
      "Ġ120": 2409,
      "ĠCl": 2410,
      "oll": 2411,
      "03": 2412,
      "ual": 2413,
      "ere": 2414,
      "Ġà®ľà®©à®¨": 2415,
      "1929": 2416,
      "\",": 2417,
      "52": 2418,
      "à®µà®°à®ķ": 2419,
      "à®ķà®²à®ķ": 2420,
      "à®īà®£à®µ": 2421,
      "Ġà®ĩà®Łà®µ": 2422,
      "ĠMus": 2423,
      "à®Ĵà®©": 2424,
      "stit": 2425,
      "Ġ1935": 2426,
      "à¤¾": 2427,
      "iy": 2428,
      "ire": 2429,
      "ole": 2430,
      "ym": 2431,
      "Ġà®ħà®³à®ķ": 2432,
      "Ġà®Ĩà®¤à®²": 2433,
      "Ġà®ĩà®¤à®¯à®¤": 2434,
      "1914": 2435,
      "Ġ600": 2436,
      "1924": 2437,
      "63": 2438,
      "ject": 2439,
      "à®ļà®®à®©": 2440,
      "à®¨à®Łà®¤": 2441,
      "Ġà®¤à®°à®¤": 2442,
      "Ġà®µà®²à®®": 2443,
      "1917": 2444,
      "Ġ1914": 2445,
      "Ġà®ļà®®à®ķ": 2446,
      "ator": 2447,
      "ative": 2448,
      "à®ķà®©à®Ļ": 2449,
      "à®īà®¯à®°": 2450,
      "Ġ1944": 2451,
      "âĶ": 2452,
      "Ġalign": 2453,
      "à®Łà®Łà®Ļ": 2454,
      "Ġà®µà®µ": 2455,
      "Ġà®¨à®²à®©": 2456,
      "à®ķà®²à®Ļ": 2457,
      "Ġà®®à®¤à®ķ": 2458,
      "Ġà®¹à®µ": 2459,
      "Ġà®®à®ķà®°à®¨": 2460,
      "54": 2461,
      "ĠQ": 2462,
      "à®µà®©à®°": 2463,
      "à®®à®°à®©": 2464,
      "Ġà®¤à®°à®ķ": 2465,
      "ount": 2466,
      "Ġà®¨à®ª": 2467,
      "Ġà®ªà®²à®©": 2468,
      "ĠPl": 2469,
      "Ġà®Ĩà®²à®¯à®¤": 2470,
      "1932": 2471,
      "ute": 2472,
      "Ġ1929": 2473,
      "con": 2474,
      "à®¤à®©à®Ļ": 2475,
      "Ġà®ĵà®²": 2476,
      "Ġ1934": 2477,
      "eth": 2478,
      "form": 2479,
      "à®©à®µà®©": 2480,
      "à®µà®¸": 2481,
      "à®µà®²à®ķà®Ļ": 2482,
      "à®¨à®²à®µ": 2483,
      "Ġà®ıà®µà®ª": 2484,
      "à®İà®ª": 2485,
      "51": 2486,
      "à®°à®ķà®Ļ": 2487,
      "à®®à®°à®®": 2488,
      "à®ļà®¯à®®": 2489,
      "Ġà®¤à®ķà®Ł": 2490,
      "Ġà®īà®ªà®¨": 2491,
      "Ġà®Ĳà®¯": 2492,
      "ĠSri": 2493,
      "Ġ1925": 2494,
      "1922": 2495,
      "''": 2496,
      "Ar": 2497,
      "à®ĩà®¯à®ķ": 2498,
      "à®¯à®ķà®Ļ": 2499,
      "à®µà®©à®µ": 2500,
      "à®Ĩà®²": 2501,
      "ates": 2502,
      "à®±à®®à®Ł": 2503,
      "Ġ2022": 2504,
      "ĠNational": 2505,
      "ĠGu": 2506,
      "Ġ1946": 2507,
      "ĠInternational": 2508,
      "eal": 2509,
      "ou": 2510,
      "ton": 2511,
      "à¯į]": 2512,
      "à®Łà®ķà®ª": 2513,
      "à®µà®¯": 2514,
      "à®ķà®°à®ļ": 2515,
      "Ġ78": 2516,
      "1925": 2517,
      "79": 2518,
      "Ġed": 2519,
      "à®Łà®¯à®®": 2520,
      "à®®à®´": 2521,
      "1916": 2522,
      "ale": 2523,
      "2017": 2524,
      "2018": 2525,
      "Ġà®ķà®³à®ŀ": 2526,
      "Ġ1921": 2527,
      "Ġstyle": 2528,
      "ĠâĨĴ": 2529,
      "à®°à®µà®®": 2530,
      "Ġà®ħà®ľ": 2531,
      "Ġà®ħà®°à®ķ": 2532,
      "à®ŀà®©": 2533,
      "à®ªà®ķà®±": 2534,
      "Ġ43": 2535,
      "ĠSci": 2536,
      "Ġ1924": 2537,
      "Ġ1928": 2538,
      "ĠÃ": 2539,
      "Ġex": 2540,
      "à®¯à®ªà®Ł": 2541,
      "Ġà®ĩà®°à®ķà®ļ": 2542,
      "Ġà®ªà®ķà®µà®¤": 2543,
      "ana": 2544,
      "erm": 2545,
      "Ġà®ªà®£à®ķ": 2546,
      "Ġà®Īà®ļ": 2547,
      "ished": 2548,
      "Ġà®¹à®®": 2549,
      "ref": 2550,
      "Ġ1923": 2551,
      "html": 2552,
      "09": 2553,
      "à®ªà®µà®¤": 2554,
      "Ġà®Ĵà®ļ": 2555,
      "Ġ--": 2556,
      "Ġà®ħà®±à®ķ": 2557,
      "Ġ53": 2558,
      "1931": 2559,
      "cial": 2560,
      "ward": 2561,
      "à®¿âĢĻ": 2562,
      "Ġ1910": 2563,
      "à®ħà®¤à®©": 2564,
      "Ġà®ļà®°à®¸": 2565,
      "ĠBook": 2566,
      "rop": 2567,
      "Ġ1931": 2568,
      "04": 2569,
      "ĢâĶ": 2570,
      "Ġà®ķà®²à®®": 2571,
      "à¯Ģ)": 2572,
      "ash": 2573,
      "Ġ1933": 2574,
      "06": 2575,
      "rid": 2576,
      "à®¨à®©": 2577,
      "Ġà®īà®ķà®¨": 2578,
      "à®¯à®®à®Ļ": 2579,
      "Ġà®ªà®Łà®ª": 2580,
      "Ġà®ľà®©à®¤": 2581,
      "Ġ39": 2582,
      "Ġà®®à®¤à®Ļ": 2583,
      "Ġà®Īà®´à®ª": 2584,
      "à®©à®ļà®°": 2585,
      "Ġà®¨à®²à®®": 2586,
      "à®Łà®¤à®©": 2587,
      "à®µà®Łà®ķ": 2588,
      "Ġà®¨à®ķà®°à®ª": 2589,
      "Ġà®µà®Łà®ķà®°": 2590,
      "Ġ55": 2591,
      "Ġ900": 2592,
      "ĠLank": 2593,
      "ĠEarth": 2594,
      "à®Ĳà®¨": 2595,
      "ada": 2596,
      "Ġ1932": 2597,
      "1928": 2598,
      "Ġ250": 2599,
      "à®ļà®°à®¤": 2600,
      "1912": 2601,
      "à®²à®ķà®£": 2602,
      "Ġà®Ĭà®´à®²": 2603,
      "à®īà®Łà®²": 2604,
      "Ġ1943": 2605,
      "1927": 2606,
      "Cl": 2607,
      "ĠØ": 2608,
      "eral": 2609,
      "1923": 2610,
      "ham": 2611,
      "rad": 2612,
      "yl": 2613,
      "1919": 2614,
      "à®¤à®®à®Ł": 2615,
      "Ġà®Ĳà®İà®¸": 2616,
      "à®İà®°": 2617,
      "Ġà®®à®°à®£": 2618,
      "Ġà®µà®£à®ķ": 2619,
      "earch": 2620,
      "Ġch": 2621,
      "à®®à®ŀ": 2622,
      "à®¯à®£à®®": 2623,
      "Ġ95": 2624,
      "umb": 2625,
      "à®ļà®°à®®": 2626,
      "Ġà®¨à®®à®¤": 2627,
      "à®ķà®°à®°": 2628,
      "Ġ1919": 2629,
      "Ġ1916": 2630,
      "à®ľà®¸": 2631,
      "Ġpr": 2632,
      "1921": 2633,
      "du": 2634,
      "à®©à®±": 2635,
      "Ġà®ķà®³à®¤": 2636,
      "Ġà®ĩà®´à®ķ": 2637,
      "Ġ101": 2638,
      "Ġà®µà®´à®®": 2639,
      "ĠSp": 2640,
      "ĠCon": 2641,
      "Ġ83": 2642,
      "2019": 2643,
      "ĠOr": 2644,
      "1906": 2645,
      "NA": 2646,
      "lish": 2647,
      "te": 2648,
      "ver": 2649,
      "à®¯à®¤à®©": 2650,
      "Ġà®ªà®´à®¨": 2651,
      "à®¯à®®à®°": 2652,
      "ĠĠĠĠĠ": 2653,
      "ĠRes": 2654,
      "Ġ2020": 2655,
      "ose": 2656,
      "Ġ1908": 2657,
      "ĉĉĉĉ": 2658,
      "de": 2659,
      "à®®à®¯à®®": 2660,
      "à®Łà®©à®®": 2661,
      "Ġà®ıà®ŀ": 2662,
      "à®ħà®¯": 2663,
      "icial": 2664,
      "ited": 2665,
      "Ġ86": 2666,
      "edia": 2667,
      "Ġweb": 2668,
      "CO": 2669,
      "ool": 2670,
      "à®³à®Ł": 2671,
      "Ġ1900": 2672,
      "à®ħà®³à®µ": 2673,
      "Ġà®Ĳà®©": 2674,
      "ions": 2675,
      "ome": 2676,
      "ĠMan": 2677,
      "ier": 2678,
      "ĠÂ°": 2679,
      "à®©à®ķà®¤": 2680,
      "Ġà®µà®ŀ": 2681,
      "à®¯à®²à®Ł": 2682,
      "1913": 2683,
      "Ġà®ļà®®à®¤": 2684,
      "ari": 2685,
      "Ġà®Ĭà®Łà®ķà®Ļ": 2686,
      "2021": 2687,
      "Ġpl": 2688,
      "uman": 2689,
      "rav": 2690,
      "site": 2691,
      "tamil": 2692,
      "à¯ģ?": 2693,
      "Ġà®ļà®©à®¤": 2694,
      "Ġ1912": 2695,
      "Ġ63": 2696,
      "à®ıà®´": 2697,
      "ĠInstit": 2698,
      "ĠĠĠĠĠĠĠĠĠĠĠĠĠĠĠĠĠĠĠĠĠĠĠĠĠĠĠĠĠĠĠĠĠĠĠĠĠĠĠĠĠĠĠĠĠĠĠĠĠĠĠĠĠĠĠĠĠĠĠĠĠĠĠĠ": 2699,
      "ĢâĶĢâĶ": 2700,
      "à¯Ī),": 2701,
      "à¯ĩ!": 2702,
      "à®°à®®à®®": 2703,
      "orn": 2704,
      "Ġà®Īà®´": 2705,
      "old": 2706,
      "1926": 2707,
      "à®¤à®µà®¤": 2708,
      "à®®à®¤à®®": 2709,
      "Ġà®ªà®ķà®¤": 2710,
      "Ġà®ķà®¤à®µ": 2711,
      "Ġà®¤à®ķà®°": 2712,
      "Ġà®ħà®ķà®ª": 2713,
      "Ġà®ıà®®": 2714,
      "à®¤à®°à®ķ": 2715,
      "Ġà®Īà®°à®ª": 2716,
      "à®īà®©": 2717,
      "Ġà®ĩà®Łà®ļ": 2718,
      "Ġ46": 2719,
      "à®ķà®£à®Ļ": 2720,
      "ĠGoogle": 2721,
      "over": 2722,
      "ound": 2723,
      "Ġ>": 2724,
      "Ġà®ħà®¯à®²": 2725,
      "Ġà®īà®©à®ķ": 2726,
      "à®°à®®à®¤": 2727,
      "1910": 2728,
      "Ġ79": 2729,
      "Ġ1926": 2730,
      "Ġ1927": 2731,
      "co": 2732,
      "ean": 2733,
      "port": 2734,
      "à®©à®®à®²à®°": 2735,
      "âĢĺ": 2736,
      "à®¤à®®à®Ļ": 2737,
      "à®ªà®°à®µà®³": 2738,
      "à®īà®£": 2739,
      "ese": 2740,
      "ĠSch": 2741,
      "à®¹à®®": 2742,
      "à®Ĵà®Ł": 2743,
      "Ġà®ļà®©à®¨": 2744,
      "08": 2745,
      "Ġà®Ĩà®¯à®°": 2746,
      "Ġà®ļà®®à®£": 2747,
      "ÂłĊ": 2748,
      "Ġ700": 2749,
      "à®ĩà®¤à®±": 2750,
      "ÙĦ": 2751,
      "Ġà®¨à®³": 2752,
      "Ġ1913": 2753,
      "Ġ1911": 2754,
      "à®ľà®¯à®©": 2755,
      "Ġà®ıà®¨": 2756,
      "Ġ67": 2757,
      "ĠMar": 2758,
      "ings": 2759,
      "ĠJohn": 2760,
      "Ġlanguage": 2761,
      "ĠStud": 2762,
      "ibr": 2763,
      "%),": 2764,
      "ux": 2765,
      "à®®à®µà®°": 2766,
      "à®±à®µà®©": 2767,
      "Ġà®®à®¤à®°": 2768,
      "Ġà®¤à®³à®°": 2769,
      "à®´à®ķà®®": 2770,
      "à¯į...": 2771,
      "Ġà®İà®ĥà®ķ": 2772,
      "1911": 2773,
      "Ġà®ķà®£à®¤": 2774,
      "Ġà®Ĭà®ļ": 2775,
      "Ġà®ħà®ķà®ļ": 2776,
      "à®ıà®©": 2777,
      "ĠYork": 2778,
      "ox": 2779,
      "ys": 2780,
      "à®¿à¯į": 2781,
      "à®¨à®µà®®": 2782,
      "Ġà®ĩà®¤à®©à®°": 2783,
      "à¯į.)": 2784,
      "Ġà®µà®°à®ķ": 2785,
      "Ġ56": 2786,
      "ital": 2787,
      "Ġ62": 2788,
      "ents": 2789,
      "SA": 2790,
      "der": 2791,
      "mun": 2792,
      "text": 2793,
      "ĉĊ": 2794,
      "à®Łà®£à®®": 2795,
      "Ġà®ķà®ľ": 2796,
      "à®ļà®±": 2797,
      "à®¯à®¤à®±": 2798,
      "1900": 2799,
      "Ġ1915": 2800,
      "Ġà®ħà®°à®ļà®®à®°à®ª": 2801,
      "ĠII": 2802,
      "Ġà®īà®ªà®ķà®°": 2803,
      "echn": 2804,
      "</": 2805,
      "à®¤à®µà®®": 2806,
      "à®¨à®±": 2807,
      "Ġà®Ĵà®¯": 2808,
      "Ġà®ĩà®²à®µà®ļ": 2809,
      "Ġà®ļà®®à®¯à®ª": 2810,
      "ise": 2811,
      "ĠPer": 2812,
      "à¤°": 2813,
      "ript": 2814,
      "Ġà®µà®Łà®ª": 2815,
      "Ġà®ĩà®¤à®°": 2816,
      "Ġà®ħà®°à®µ": 2817,
      "à®ªà®°à®£": 2818,
      "Ġ41": 2819,
      "ĠMat": 2820,
      "ization": 2821,
      ")-": 2822,
      "pan": 2823,
      "à®ªà®£à®®": 2824,
      "Ġà®ªà®¯à®Ļ": 2825,
      "Ġà®ĩà®³à®µ": 2826,
      "Ġà®ĩà®°à®ķ": 2827,
      "ala": 2828,
      "arn": 2829,
      "ick": 2830,
      "Ġ54": 2831,
      "Ġà®Ĩà®µà®£à®ª": 2832,
      "Ġ1906": 2833,
      "à®ĵà®°": 2834,
      "à®°à®´": 2835,
      "Ġà®®à®Łà®ķ": 2836,
      "Ġà®īà®Łà®®": 2837,
      "Ġà®ĩà®¤à®¯à®®": 2838,
      "à®ħà®ŀ": 2839,
      "Ġ1500": 2840,
      "Ġcl": 2841,
      "hys": 2842,
      "BA": 2843,
      "put": 2844,
      "uv": 2845,
      "Ð¾": 2846,
      "à®°à®µà®¤": 2847,
      "à®°à®¤à®°": 2848,
      "à®¨à®ķ": 2849,
      "Ġà®µà®ļà®®": 2850,
      "Ġà®ķà®£à®Ļ": 2851,
      "à®µà®©à®¨": 2852,
      "Ġà®Łà®ķ": 2853,
      "isc": 2854,
      "Ġ74": 2855,
      "Ġ1898": 2856,
      "oci": 2857,
      "ras": 2858,
      "to": 2859,
      "à®Łà®Łà®®": 2860,
      "Ġà®ķà®¸": 2861,
      "Ġà®ļà®°à®¤": 2862,
      "Ġà®İà®©à®ļ": 2863,
      "à®ľà®¤": 2864,
      "Ġà®¹à®©": 2865,
      "Ġ73": 2866,
      "Ġ81": 2867,
      "Ġ84": 2868,
      "Ġ98": 2869,
      "ĠBl": 2870,
      "ĠFor": 2871,
      "ode": 2872,
      "Ġ1905": 2873,
      "artic": 2874,
      ".)": 2875,
      "à®°à®¹": 2876,
      "à®³à®Łà®Ļ": 2877,
      "Ġà®ķà®µà®²": 2878,
      "Ġà®µà®ļà®©à®Ļ": 2879,
      "Ġà®ļà®°à®ļ": 2880,
      "Ġà®ļà®ªà®¤à®®": 2881,
      "Ġà®¨à®ŀ": 2882,
      "à®ķà®°à®µ": 2883,
      "Ġà®ĩà®¤à®¯": 2884,
      "Ġà®ªà®°à®ļ": 2885,
      "ature": 2886,
      "à®ªà®®à®£": 2887,
      "Ġ58": 2888,
      "ĠAm": 2889,
      "Ġ88": 2890,
      "ures": 2891,
      "Ġà®ĩà®®à®¯à®®à®²": 2892,
      "ety": 2893,
      "Ġ1904": 2894,
      "1908": 2895,
      "ÂłÂłÂłÂł": 2896,
      "iel": 2897,
      "Ã¡": 2898,
      "à®¿;": 2899,
      "Ġà®Ĩà®Łà®®": 2900,
      "à®ķà®®à®®": 2901,
      "à®°à®®à®©": 2902,
      "Ġà®ĩà®²à®µà®ļà®®": 2903,
      "ink": 2904,
      "ication": 2905,
      "à®®à®£à®°": 2906,
      "round": 2907,
      "1905": 2908,
      "SI": 2909,
      "res": 2910,
      "ts": 2911,
      "àµ": 2912,
      "à®¤à®Łà®µ": 2913,
      "à®ªà®²à®¤": 2914,
      "à®³à®¨": 2915,
      "Ġà®ħà®ķà®²": 2916,
      "à®´à®°à®ļ": 2917,
      "1915": 2918,
      "inn": 2919,
      "Ġ3000": 2920,
      "Ġ66": 2921,
      "à®ªà®±à®µ": 2922,
      "Ġ77": 2923,
      "Ġ82": 2924,
      "ĠIs": 2925,
      "ung": 2926,
      "ular": 2927,
      "ĠInstitute": 2928,
      "Ġj": 2929,
      "Ġle": 2930,
      "Ĳ×": 2931,
      "à®¤à®ķà®µ": 2932,
      "à®°à®ľ": 2933,
      "à®£à®³à®µ": 2934,
      "Ġà®µà®²à®ª": 2935,
      "Ġà®Ĩà®³à®ª": 2936,
      "à®Łà®¤à®±": 2937,
      "Ġà®²à®²": 2938,
      "atic": 2939,
      "ara": 2940,
      "Ġ76": 2941,
      "ĠDr": 2942,
      "Ġman": 2943,
      "ave": 2944,
      "Ġà®µà®±à®£": 2945,
      "ourn": 2946,
      "pp": 2947,
      "Ġim": 2948,
      "à®®à®°à®¤": 2949,
      "à®²à®¤à®©à®®": 2950,
      "à®¨à®ļ": 2951,
      "à®ĩà®°à®¤": 2952,
      "Ġà®µà®°à®¤à®°": 2953,
      "Ġà®Ĭà®©": 2954,
      "ĠSc": 2955,
      "à¯į\".": 2956,
      "ĠRo": 2957,
      "ime": 2958,
      "Ġ1907": 2959,
      "1898": 2960,
      "ĠLanka": 2961,
      "ti": 2962,
      "à®¤à®ķà®µà®²": 2963,
      "Ġà®®à®Łà®¤": 2964,
      "Ġà®ħà®ķà®®à®¤": 2965,
      "à®Ĩà®©à®¨": 2966,
      "arm": 2967,
      "ĠPol": 2968,
      "Ġà®Ĩà®µà®£à®®": 2969,
      "elop": 2970,
      "ĠâĪĴ": 2971,
      "hemat": 2972,
      "ll": 2973,
      "Î¿": 2974,
      "à®²à®ķà®°": 2975,
      "Ġà®ķà®ķ": 2976,
      "à®ļà®ķà®¤": 2977,
      "Ġà®ħà®·": 2978,
      "ina": 2979,
      "Ġ57": 2980,
      "à¯Ģ.;": 2981,
      "Ġà®Ĩà®¤à®°à®µà®³": 2982,
      "Ġres": 2983,
      "ta": 2984,
      "ĠÂł": 2985,
      "Ġà¦": 2986,
      "Ġà®®à®µ": 2987,
      "Ġà®®à®ķà®¤": 2988,
      "Ġà®®à®¯à®ķ": 2989,
      "Ġà®®à®¤à®ª": 2990,
      "à®ļà®°à®ķ": 2991,
      "Ġ69": 2992,
      "Ġà®Ĩà®µà®£": 2993,
      "olution": 2994,
      "ondon": 2995,
      "other": 2996,
      "ML": 2997,
      "ren": 2998,
      "ĠÐ": 2999,
      "à®±à®£": 3000,
      "à¯ĩ-": 3001,
      "à¯ĭ)": 3002,
      "à®ªà®¤à®µ": 3003,
      "à®¯à®ķà®ķ": 3004,
      "ins": 3005,
      "à®°à®ªà®ŀ": 3006,
      "ĠAd": 3007,
      "Ġ800": 3008,
      "reat": 3009,
      "cess": 3010,
      "à¯ģâĢĿ": 3011,
      "à®©à®ķà®°à®©": 3012,
      "Ġà®ªà®±à®¨": 3013,
      "Ġà®ªà®¹": 3014,
      "à®¯à®²à®°": 3015,
      "à®ķà®®à®£": 3016,
      "à®¯à®¤à®°": 3017,
      "Ġà®°à®ª": 3018,
      "Ġà®°à®ŀ": 3019,
      "Ġà®ħà®±à®®": 3020,
      "Ġà®®à®©à®ļ": 3021,
      "à®İà®¨": 3022,
      "à®¤à®µà®³": 3023,
      "à®¤à®ķà®©": 3024,
      "ĠAc": 3025,
      "ĠVol": 3026,
      "formation": 3027,
      "fer": 3028,
      "à®¤à®µà®±": 3029,
      "à®¯à®ķà®ª": 3030,
      "à®£à®¨": 3031,
      "ĠâĢĻ": 3032,
      "Ġà®Ĩà®ķà®ķ": 3033,
      "Ġà®°à®ķà®ļ": 3034,
      "ans": 3035,
      "Ġà®ĩà®µà®©à®¤": 3036,
      "Ġà®īà®²à®ķà®³à®µ": 3037,
      "ĠAss": 3038,
      "its": 3039,
      "igh": 3040,
      "overn": 3041,
      "Ind": 3042,
      "ix": 3043,
      "ÏĢ": 3044,
      "à®©à®µà®±": 3045,
      "à®ķà®³à®Ļ": 3046,
      "à®ĩà®²à®¤": 3047,
      "à®ªà®°à®µ": 3048,
      "à®±à®©à®µ": 3049,
      "ĠĠĠĠĠĠ": 3050,
      "orth": 3051,
      "ĠAmer": 3052,
      "ĠElect": 3053,
      "uss": 3054,
      "istics": 3055,
      "1904": 3056,
      "Com": 3057,
      "ford": 3058,
      "×Ļ": 3059,
      "à®¤à®¯à®®": 3060,
      "à¯ĩ)": 3061,
      "Ġà®¨à®µà®ķ": 3062,
      "Ġà®ķà®Łà®ķ": 3063,
      "Ġà®ĩà®£à®Ļ": 3064,
      "aram": 3065,
      "à®ªà®®à®Ł": 3066,
      "ĠAs": 3067,
      "ĠIm": 3068,
      "Ġà®Ĩà®²à®¯à®Ļ": 3069,
      "ĠLibr": 3070,
      "Ġsh": 3071,
      "Ġ1896": 3072,
      "ife": 3073,
      "))": 3074,
      "rum": 3075,
      "à®Łà®´": 3076,
      "à¯Ī).": 3077,
      "à®´à®ķà®ķ": 3078,
      "1901": 3079,
      "ley": 3080,
      "ĠMad": 3081,
      "ĠRep": 3082,
      "à®ĥà®¤": 3083,
      "gen": 3084,
      "Ġun": 3085,
      "à®¾(": 3086,
      "à®±à®±": 3087,
      "Ġà®ļà®ķà®²": 3088,
      "Ġà®ħà®µà®®": 3089,
      "Ġ68": 3090,
      "ĠFl": 3091,
      "ophy": 3092,
      "ridge": 3093,
      "red": 3094,
      "Ð°": 3095,
      "à®µà®²à®®": 3096,
      "Ġà®İà®ĥà®ª": 3097,
      "âĢĶ": 3098,
      "à®·à®©à®²": 3099,
      "ications": 3100,
      "ĠAf": 3101,
      "urn": 3102,
      "ull": 3103,
      "ĠSouth": 3104,
      "AE": 3105,
      "]]": 3106,
      "ma": 3107,
      "Ġà®ħà®ªà®°": 3108,
      "à¯Ĥ,": 3109,
      "à®·à®¤": 3110,
      "itt": 3111,
      "Ġ71": 3112,
      "ĠRev": 3113,
      "Ġph": 3114,
      "1907": 3115,
      "ower": 3116,
      "evelop": 3117,
      "ĠIndian": 3118,
      "air": 3119,
      "à®©à®Łà®¤": 3120,
      "Ġà®®à®Łà®²": 3121,
      "Ġà®ħà®®à®²": 3122,
      "à®°à®®à®Ļ": 3123,
      "Ġ1901": 3124,
      "Ġà®ħà®°à®ļà®µ": 3125,
      "ery": 3126,
      "arg": 3127,
      "Ġ61": 3128,
      "ilos": 3129,
      "illi": 3130,
      "ĠDel": 3131,
      "adem": 3132,
      "à¤®": 3133,
      "oph": 3134,
      "1896": 3135,
      "own": 3136,
      "à®ĥà®µ": 3137,
      "Ġstud": 3138,
      "ĠĠĠĠĠĠĠĠĠĠĠĠĠĠĠ": 3139,
      "bout": 3140,
      "ress": 3141,
      "Ġà®Ĩà®¯à®¤": 3142,
      "à®ĩà®¯à®²": 3143,
      "Ġ---": 3144,
      "anth": 3145,
      "Ġà®®à®©à®¨": 3146,
      "Ġà®Īà®ļà®©": 3147,
      "ĠSub": 3148,
      "ames": 3149,
      "etw": 3150,
      "agement": 3151,
      "istor": 3152,
      "ĠWh": 3153,
      "à¤¿": 3154,
      "à·Ĵ": 3155,
      "ĠUS": 3156,
      "1909": 3157,
      "out": 3158,
      "Ġz": 3159,
      "à¯ģà®¾": 3160,
      "à®°à®³à®µ": 3161,
      "à®£à®¯à®¤": 3162,
      "à¯ģ.\"": 3163,
      "à®¤à®²à®©": 3164,
      "led": 3165,
      "ury": 3166,
      "ĠOff": 3167,
      "rict": 3168,
      "df": 3169,
      "gy": 3170,
      "ha": 3171,
      "pro": 3172,
      "ty": 3173,
      "Ġà®ªà®¤à®ª": 3174,
      "à®Ĩà®¨": 3175,
      "ican": 3176,
      "lex": 3177,
      "ĠLondon": 3178,
      "idth": 3179,
      "ulation": 3180,
      "1861": 3181,
      "ĠEnglish": 3182,
      "En": 3183,
      "por": 3184,
      "rist": 3185,
      "Ġà®īà®ªà®¤": 3186,
      "Ġà®µà®°à®¤": 3187,
      "à®ķà®²à®µ": 3188,
      "Ġà®ķà®²à®©": 3189,
      "à®µà®©à®µà®±": 3190,
      "à®°à®¤à®Ļ": 3191,
      "Ġà®ļà®®à®£à®°": 3192,
      "alay": 3193,
      "esc": 3194,
      "ilm": 3195,
      "à®Ĵà®ª": 3196,
      "ĠGen": 3197,
      "ĠArt": 3198,
      "ulture": 3199,
      "span": 3200,
      "ĠSoci": 3201,
      "à²": 3202,
      "à®µà®ķà®°": 3203,
      "Ġà®ķà®³à®ª": 3204,
      "Ġà®®à®®": 3205,
      "Ġà®¤à®ķà®µ": 3206,
      "à®¤à®®à®°": 3207,
      "à®ħà®´à®ķ": 3208,
      "Ġà®ļà®®à®¯à®ķ": 3209,
      "Ġà®ħà®©à®¨": 3210,
      "ars": 3211,
      "lection": 3212,
      "à®®à®£à®©": 3213,
      "ĠLe": 3214,
      "à®Ĳà®¤": 3215,
      "Ġsystem": 3216,
      "rib": 3217,
      "cient": 3218,
      "elect": 3219,
      "overnment": 3220,
      "eum": 3221,
      "ground": 3222,
      "na": 3223,
      "à®¯à®£à®¤": 3224,
      "à®µà®²à®ķ": 3225,
      "à®µà®³à®®": 3226,
      "à®ļà®ŀ": 3227,
      "âĢľ": 3228,
      "Ġà®ľà®ķ": 3229,
      "erc": 3230,
      "Ġà®īà®£à®°à®ª": 3231,
      "Ġà®ħà®µà®³à®¤": 3232,
      "à®ķà®Łà®±": 3233,
      "à®īà®ª": 3234,
      "Ġà®ªà®¯à®£à®Ļ": 3235,
      "Ġ92": 3236,
      "ĠDe": 3237,
      "Ġ1892": 3238,
      "--------": 3239,
      "Ġà®īà®ªà®ķà®°à®£à®Ļ": 3240,
      "bl": 3241,
      "Î±": 3242,
      "Ġal": 3243,
      "à®Łà®ªà®Ł": 3244,
      "à®µà®£à®®": 3245,
      "Ġà®ķà®³à®µ": 3246,
      "à®µà®°à®ļ": 3247,
      "Ġà®ħà®±à®¨": 3248,
      "à®ħà®µà®©": 3249,
      "ert": 3250,
      "à®īà®ķ": 3251,
      "Ġ96": 3252,
      "à®ļà®¨à®²": 3253,
      "eter": 3254,
      "iver": 3255,
      "Ġbe": 3256,
      "Ġwh": 3257,
      "1902": 3258,
      "1899": 3259,
      "clop": 3260,
      "ĠPublish": 3261,
      "400": 3262,
      "à®ķà®©à®¤": 3263,
      "à®Łà®µà®Ł": 3264,
      "à®®à®³": 3265,
      "à®±à®ªà®Ł": 3266,
      "à®ļà®²à®ª": 3267,
      "Ġ110": 3268,
      "Ġà®ĩà®©à®µ": 3269,
      "à®ªà®ķà®Ļ": 3270,
      "ĠCO": 3271,
      "ĠCent": 3272,
      "ild": 3273,
      "els": 3274,
      "Ġ1902": 3275,
      "Ġ1903": 3276,
      "Ġ1890": 3277,
      "sky": 3278,
      "ĠCanada": 3279,
      "Ġwebsite": 3280,
      "IS": 3281,
      "fl": 3282,
      "gram": 3283,
      "ne": 3284,
      "Ġà®ªà®ķà®µ": 3285,
      "Ġà®®à®¸": 3286,
      "Ġà®®à®£à®ª": 3287,
      "à®ħà®µà®³": 3288,
      "erman": 3289,
      "atch": 3290,
      "ors": 3291,
      "à®µà®²à®ķà®¤": 3292,
      "à®īà®®": 3293,
      "ĠTr": 3294,
      "omic": 3295,
      "ĠFran": 3296,
      "à®ıà®°": 3297,
      "1903": 3298,
      "ineer": 3299,
      "Ġà®®à®°à®£à®®à®Ł": 3300,
      "cyclop": 3301,
      "ĠScience": 3302,
      "300": 3303,
      "au": 3304,
      "back": 3305,
      "yc": 3306,
      "à®°à®³à®¤": 3307,
      "à®¾à®¿": 3308,
      "à®ªà®ķà®²": 3309,
      "à®²à®ļà®¨": 3310,
      "à®³à®³à®µ": 3311,
      "Ġà®ªà®±à®ª": 3312,
      "à¯ĭ\"": 3313,
      "Ġà®Ĵà®£": 3314,
      "à®ķà®°à®Ł": 3315,
      "à®°à®¤à®ķ": 3316,
      "à®°à®ªà®¨": 3317,
      "ĠCo": 3318,
      "Ġà®µà®³à®°à®ķ": 3319,
      "Ġ91": 3320,
      "ĠLanguage": 3321,
      "1897": 3322,
      "ĠStat": 3323,
      "à®Ĩà®ķà®¸": 3324,
      "AT": 3325,
      "ze": 3326,
      "Ġus": 3327,
      "Ġà®ªà®¯à®®": 3328,
      "à®ľà®¯à®®": 3329,
      "Ġà®ķà®²à®µà®°à®®": 3330,
      "ene": 3331,
      "à®ķà®Łà®¨": 3332,
      "iter": 3333,
      "Ġà®ļà®ķà®¸": 3334,
      "Ġ99": 3335,
      "ĠRag": 3336,
      "ett": 3337,
      "à¯į',": 3338,
      "à®ıà®±": 3339,
      "Ġ2500": 3340,
      "app": 3341,
      "Ġ1899": 3342,
      "1895": 3343,
      "à¦¾": 3344,
      "1889": 3345,
      "que": 3346,
      "ments": 3347,
      "indu": 3348,
      "clud": 3349,
      "Pro": 3350,
      "à¯ģâĢĻ": 3351,
      "à®¤à®£à®°": 3352,
      "Ġà®ķà®ŀ": 3353,
      "Ġà®ķà®©à®®": 3354,
      "à®ļà®¯à®©": 3355,
      "Ġà®®à®¤à®©": 3356,
      "à®£à®µà®©": 3357,
      "Ġà®µà®©à®ª": 3358,
      "à®ªà®°à®ķ": 3359,
      "Ġà®ĵà®ķ": 3360,
      "à®¤à®µà®²": 3361,
      "Ġà®Ĩà®©à®µ": 3362,
      "à¯į\")": 3363,
      "ets": 3364,
      "Ġà®ĩà®¯à®²à®µ": 3365,
      "Ġcon": 3366,
      "oss": 3367,
      "Ġ1897": 3368,
      "ĠChar": 3369,
      "101": 3370,
      "CC": 3371,
      "ck": 3372,
      "à®ªà®©à®®": 3373,
      "à®¯à®ľ": 3374,
      "Ġà®ĩà®Łà®°": 3375,
      "Ġà®Ĩà®²à®Ļ": 3376,
      "à®¤à®©à®µ": 3377,
      "à®©à®°à®²": 3378,
      "ĠâĢĿ": 3379,
      "Ġà®®à®©à®ª": 3380,
      "ĠPa": 3381,
      "Ġpp": 3382,
      "istrict": 3383,
      "ĠWeb": 3384,
      "ĠInt": 3385,
      "à·Ĭ": 3386,
      "Ġà®®à®£à®®à®ķà®©": 3387,
      "ugh": 3388,
      "ble": 3389,
      "right": 3390,
      "à®ļà®µà®®": 3391,
      "Ġà®¤à®ļà®®": 3392,
      "à®ħà®µà®°à®¤": 3393,
      "à®İà®©à®µ": 3394,
      "Ġà®Īà®ķ": 3395,
      "the": 3396,
      "ĠSystem": 3397,
      "ĠCal": 3398,
      "ĠCont": 3399,
      "itect": 3400,
      "ĠMon": 3401,
      "Ġ93": 3402,
      "à®°à®ķà®Łà®©": 3403,
      "ĠBi": 3404,
      "Ġ108": 3405,
      "2020": 3406,
      "agnet": 3407,
      "1888": 3408,
      "iction": 3409,
      "Ġà®ķà®´à®ķà®Ļ": 3410,
      "OH": 3411,
      "dd": 3412,
      "ke": 3413,
      "Ðµ": 3414,
      "Ð¸": 3415,
      "Ø§": 3416,
      "ŀ×": 3417,
      "à®Łà®ļà®ª": 3418,
      "à®ªà®¯à®£": 3419,
      "Ġà®®à®Łà®®": 3420,
      "Ġà®Ĩà®Łà®²": 3421,
      "Ġà®ħà®®à®°à®©": 3422,
      "Ġà®Īà®±": 3423,
      "à®¿).": 3424,
      "adu": 3425,
      "ives": 3426,
      "Ġà®ĩà®³à®¨": 3427,
      "ract": 3428,
      "ĠWork": 3429,
      "irc": 3430,
      "Ġ1895": 3431,
      "Ġ1889": 3432,
      "à®ªà®¯à®£à®®": 3433,
      "ouse": 3434,
      "ĠStudies": 3435,
      "ĠSociety": 3436,
      "AS": 3437,
      "DL": 3438,
      "Sh": 3439,
      "lo": 3440,
      "oint": 3441,
      "ĠÂ": 3442,
      "ĳ×": 3443,
      "ķ×": 3444,
      "à®²à®ķà®²": 3445,
      "Ġà®ļà®¤à®®": 3446,
      "Ġà®¨à®ķà®²": 3447,
      "à®´à®ķà®ª": 3448,
      "à¯į.(": 3449,
      "à®°à®®à®ļ": 3450,
      "Ġà®ľà®²": 3451,
      "à®®à®©à®®": 3452,
      "à¯į):": 3453,
      "aran": 3454,
      "ision": 3455,
      "ross": 3456,
      "Ġ1894": 3457,
      "1890": 3458,
      "Ġà®¨à®Łà®©à®ķ": 3459,
      "Ġ1857": 3460,
      "ustral": 3461,
      "ights": 3462,
      "duction": 3463,
      "book": 3464,
      "Î½": 3465,
      "à¯į|": 3466,
      "à®ªà®³à®®": 3467,
      "à¯Ī/": 3468,
      "à®µà®Łà®®": 3469,
      "Ġà®µà®©à®µ": 3470,
      "Ġà®ħà®³à®ª": 3471,
      "Ġ116": 3472,
      "à®©à®°à®ļ": 3473,
      "à®ļà®°à®¸": 3474,
      "à®ļà®®à®¯à®¤": 3475,
      "Ġà®ĵà®ª": 3476,
      "esh": 3477,
      "ĠCamb": 3478,
      "Ġà®¤à®°à®¨": 3479,
      "uram": 3480,
      "ĠLi": 3481,
      "ists": 3482,
      "à¤¤": 3483,
      "ope": 3484,
      "irst": 3485,
      "Ġ1909": 3486,
      "Ġà®¨à®Łà®©à®¤": 3487,
      "ĠPublished": 3488,
      "ission": 3489,
      "ransl": 3490,
      "ield": 3491,
      "AN": 3492,
      "DP": 3493,
      "Or": 3494,
      "Ph": 3495,
      "ein": 3496,
      "à¯ģ!": 3497,
      "Ġà®ªà®¯à®°": 3498,
      "à®ļà®ªà®ķ": 3499,
      "à¯ģ.)": 3500,
      "à®¯à®²à®±": 3501,
      "âĢ¢": 3502,
      "à®ĩà®¸": 3503,
      "Ġà®®à®±à®¨": 3504,
      "à®°à®®à®ª": 3505,
      "Ġà®ĵà®¤": 3506,
      "Ġà®®à®£à®µ": 3507,
      "ĠPar": 3508,
      "Ġà®ķà®©à®ķà®ļ": 3509,
      "unction": 3510,
      "1894": 3511,
      "akk": 3512,
      "Ġ1870": 3513,
      "1870": 3514,
      "ological": 3515,
      "ĠMusic": 3516,
      "ĠAcadem": 3517,
      "evelopment": 3518,
      "MC": 3519,
      "pdf": 3520,
      "ris": 3521,
      "Ġhe": 3522,
      "à®Łà®Łà®¤": 3523,
      "à®¯à®£à®°": 3524,
      "à®µà®ļà®¤": 3525,
      "Ġà®ªà®¸": 3526,
      "Ġà®ħà®ķà®©": 3527,
      "Ġ->": 3528,
      "Ġà®Łà®µ": 3529,
      "ane": 3530,
      "Ġà®Ĳà®¸": 3531,
      "Ġà®Ĳà®¯à®Ļ": 3532,
      "à®ļà®©à®µà®°": 3533,
      "inist": 3534,
      "ĠSum": 3535,
      "à®°à®°à®ļà®©": 3536,
      "ĠPal": 3537,
      "ĠBh": 3538,
      "roup": 3539,
      "1893": 3540,
      "1865": 3541,
      "ĠĠĠĠĠĠĠĠĠĠĠĠĠĊ": 3542,
      "ruct": 3543,
      "ociation": 3544,
      ".\"": 3545,
      "Ge": 3546,
      "for": 3547,
      "me": 3548,
      "Ġ?": 3549,
      "à®°à®³à®®": 3550,
      "Ġà®®à®¯à®Ļ": 3551,
      "Ġà®ļà®¯": 3552,
      "à®Łà®¤à®Ļ": 3553,
      "Ġà®ķà®°à®£": 3554,
      "Ġà®¯à®ļ": 3555,
      "Ġà®Ĳà®¤": 3556,
      "à®ļà®°à®ļ": 3557,
      "inal": 3558,
      "Ġ360": 3559,
      "ĠAt": 3560,
      "ĠPart": 3561,
      "left": 3562,
      "ĠĠĠĠĠĠĠĠĠ": 3563,
      "Ġ87": 3564,
      "Ġ==": 3565,
      "ĠHar": 3566,
      "ĠOp": 3567,
      "Ġabout": 3568,
      "ĠJourn": 3569,
      "Ġ1891": 3570,
      "ake": 3571,
      "1879": 3572,
      "ideo": 3573,
      "ĠMathemat": 3574,
      "àµį": 3575,
      "ĠLibrary": 3576,
      "illiam": 3577,
      "Ġstudy": 3578,
      "',": 3579,
      ";\"": 3580,
      "ao": 3581,
      "lob": 3582,
      "ms": 3583,
      "à¯ģ/": 3584,
      "à®ķà®ŀ": 3585,
      "à®®à®£à®ª": 3586,
      "Ġà®īà®°à®®": 3587,
      "à®ķà®®à®Ł": 3588,
      "à®²à®®à®©": 3589,
      "Ġà®ıà®ļ": 3590,
      "Ġà®Łà®°": 3591,
      "à®³à®µà®ķ": 3592,
      "Ġà®²à®Ļ": 3593,
      "Ġà®®à®¤à®ļ": 3594,
      "ĠNa": 3595,
      "Ġà®Ĭà®Łà®ķà®®": 3596,
      "Ġwidth": 3597,
      "1863": 3598,
      "ocum": 3599,
      "Ġ1879": 3600,
      "Ġà®īà®´à®µ": 3601,
      "press": 3602,
      "Ġà®ªà®²à®¤à®°à®ª": 3603,
      "Ġà®µà®Łà®ªà®ķ": 3604,
      "ĠDelhi": 3605,
      "che": 3606,
      "fo": 3607,
      "rish": 3608,
      "Ġi": 3609,
      "Ġà®ļà®ªà®°": 3610,
      "à®¤à®°à®ļ": 3611,
      "à®ħà®°à®ª": 3612,
      "era": 3613,
      "Ġ350": 3614,
      "ities": 3615,
      "ĠĠĠĠĠĠĠĠĠĠĠ": 3616,
      "ola": 3617,
      "ĠWal": 3618,
      "Ġind": 3619,
      "à·ı": 3620,
      "à®ĵà®Ł": 3621,
      "1862": 3622,
      ";\"|": 3623,
      "Am": 3624,
      "Pl": 3625,
      "een": 3626,
      "ÑĢ": 3627,
      "Ñģ": 3628,
      "à®¾),": 3629,
      "à®©à®³": 3630,
      "Ġà®µà®³à®¤": 3631,
      "Ġà®ħà®°à®®": 3632,
      "Ġà®ħà®±à®µ": 3633,
      "à®Łà®²à®ª": 3634,
      "Ġà®¨à®ķà®°à®ļà®ª": 3635,
      "Ġà®ĵà®Ļ": 3636,
      "à®©à®®à®£": 3637,
      "icro": 3638,
      "Ġ4000": 3639,
      "ĠAg": 3640,
      "off": 3641,
      "ĠIII": 3642,
      "ĠRel": 3643,
      "umber": 3644,
      "ivil": 3645,
      "1892": 3646,
      "ĠQu": 3647,
      "700": 3648,
      "dom": 3649,
      "Ïģ": 3650,
      "ÏĦ": 3651,
      "Ġà®³": 3652,
      "à®³à®±": 3653,
      "à®ļà®¯à®Ļ": 3654,
      "Ġà®®à®¤à®µ": 3655,
      "Ġà®ļà®ķà®¤": 3656,
      "à¯į.,": 3657,
      "Ġà®Ĩà®²à®®": 3658,
      "Ġà®ªà®Łà®°": 3659,
      "ini": 3660,
      "Ġà®Ĭà®ŀ": 3661,
      "Ġ1800": 3662,
      "Ġà®®à®£à®ķ": 3663,
      "ĠCor": 3664,
      "ĠAb": 3665,
      "ĠTer": 3666,
      "ander": 3667,
      "ĠBell": 3668,
      "2022": 3669,
      "ĠHuman": 3670,
      "Ġ:-": 3671,
      "....": 3672,
      "ays": 3673,
      "odern": 3674,
      "ĠEncyclop": 3675,
      "Ġà®®à®°à®£à®¤à®£": 3676,
      "Ġclass": 3677,
      "etwork": 3678,
      "BS": 3679,
      "EC": 3680,
      "val": 3681,
      "view": 3682,
      "Ð½": 3683,
      "Ġ),": 3684,
      "à®ªà®´à®ķ": 3685,
      "Ġà®ķà®²à®¤": 3686,
      "Ġà®®à®ķà®²à®©": 3687,
      "Ġà®ħà®ķà®°à®®": 3688,
      "à®´à®ķà®°": 3689,
      "Ġà®īà®µà®°": 3690,
      "à®ķà®®à®±": 3691,
      "à®¤à®®à®²": 3692,
      "à®¯à®©à®µà®±": 3693,
      "à®Łà®²à®ķ": 3694,
      "Ġà®Łà®¯": 3695,
      "Ġà®ªà®°à®°": 3696,
      "alam": 3697,
      "à®īà®²à®ķà®®": 3698,
      "oft": 3699,
      "urr": 3700,
      "Ġà®Ĩà®²à®¯": 3701,
      "ĠDav": 3702,
      "Ġcol": 3703,
      "à·Ķ": 3704,
      "1864": 3705,
      "Ġ1882": 3706,
      "Ġ1887": 3707,
      "BCD": 3708,
      "à¥ģ": 3709,
      "à§į": 3710,
      "ineering": 3711,
      "\".": 3712,
      "800": 3713,
      ":#": 3714,
      "NO": 3715,
      "mon": 3716,
      "ret": 3717,
      "ÏĤ": 3718,
      "à¸": 3719,
      "Ġro": 3720,
      "Ġà®´": 3721,
      "à®°à®·": 3722,
      "à®²à®³": 3723,
      "Ġà®ªà®¤à®®": 3724,
      "Ġà®ħà®ļà®²": 3725,
      "à®Łà®©à®µ": 3726,
      "Ġà®ªà®°à®£": 3727,
      "Ġà®²à®µ": 3728,
      "à®®à®°à®ķ": 3729,
      "ĠPri": 3730,
      "omy": 3731,
      "ĠMed": 3732,
      "Ġ97": 3733,
      "add": 3734,
      "ray": 3735,
      "ember": 3736,
      "emple": 3737,
      "ĠInter": 3738,
      "amily": 3739,
      "Ġ1876": 3740,
      "also": 3741,
      "echnology": 3742,
      "600": 3743,
      "AM": 3744,
      "Tamil": 3745,
      "my": 3746,
      "vent": 3747,
      "Äģ": 3748,
      "Ùħ": 3749,
      "Ġen": 3750,
      "à®°à®ªà®¤": 3751,
      "à®Łà®¯à®ª": 3752,
      "à®³à®ªà®Ł": 3753,
      "Ġà®ħà®ļà®°": 3754,
      "Ġà®ĩà®°à®Ļ": 3755,
      "Ġà®°à®¹": 3756,
      "à®ªà®°à®µà®²": 3757,
      "Ġà®ķà®°à®µ": 3758,
      "ani": 3759,
      "Ġà®ĩà®£à®ķ": 3760,
      "à®ļà®°à®£": 3761,
      "à®¤à®µà®ķ": 3762,
      "ald": 3763,
      "arp": 3764,
      "Ġà®Īà®°à®®": 3765,
      "Ġ1860": 3766,
      "à®¨à®ķà®°à®ļà®ª": 3767,
      "Ġsite": 3768,
      "Ġspe": 3769,
      "ĠWar": 3770,
      "1891": 3771,
      "Ġà®ħà®µà®¤à®°": 3772,
      "1882": 3773,
      "Ġ1880": 3774,
      "ĠPhilos": 3775,
      "ĠAfric": 3776,
      "background": 3777,
      "RI": 3778,
      "SO": 3779,
      "ius": 3780,
      "nam": 3781,
      "oid": 3782,
      "td": 3783,
      "Î¹": 3784,
      "à®°à®ķà®²": 3785,
      "à®Łà®µà®±": 3786,
      "à®®à®¹": 3787,
      "à®µà®¯à®²": 3788,
      "à®µà®²à®¤": 3789,
      "Ġà®ħà®ķà®®": 3790,
      "Ġà®Ĩà®·": 3791,
      "à®¤à®²à®°": 3792,
      "à®¯à®°à®¤": 3793,
      "à®ľà®¯à®ª": 3794,
      "Ġà®ļà®®à®¯à®ļ": 3795,
      "Ġà®¹à®ª": 3796,
      "ama": 3797,
      "Ġoff": 3798,
      "Ġ89": 3799,
      "à®®à®£à®Ļ": 3800,
      "Ġ130": 3801,
      "Ġà®Ĭà®Łà®ķà®¤": 3802,
      "Ġ1886": 3803,
      "Ġ[[": 3804,
      "ource": 3805,
      "ĠPrin": 3806,
      "ĠResearch": 3807,
      "Con": 3808,
      "DI": 3809,
      "ira": 3810,
      "Ġartic": 3811,
      "à®±à®ŀ": 3812,
      "Ġà®¤à®Łà®®": 3813,
      "Ġà®¨à®²à®¤": 3814,
      "Ġ1200": 3815,
      "Ġ112": 3816,
      "à®¸à®©": 3817,
      "Ġà®ªà®°à®µà®³": 3818,
      "à®·à®°": 3819,
      "ating": 3820,
      "Ġà®Īà®©": 3821,
      "1814": 3822,
      "Ġ5000": 3823,
      "ĠLife": 3824,
      "ĠEcon": 3825,
      "à®µà®³à®µà®©": 3826,
      "opulation": 3827,
      "Ġnot": 3828,
      "1887": 3829,
      "Ġ1872": 3830,
      "Ġ1867": 3831,
      "ĠAll": 3832,
      "ĠAssociation": 3833,
      "ĠCambridge": 3834,
      "Google": 3835,
      "Pr": 3836,
      "aur": 3837,
      "gan": 3838,
      "Ã³": 3839,
      "Ġ000": 3840,
      "à®ļà®µà®°": 3841,
      "à®ĩà®°à®µ": 3842,
      "Ġà®ķà®²à®µà®°à®Ļ": 3843,
      "à®µà®©à®Ł": 3844,
      "à®±à®®à®±": 3845,
      "esign": 3846,
      "Ġ94": 3847,
      "ility": 3848,
      "à®Ĵà®±": 3849,
      "ingu": 3850,
      "à®Ĭà®Ł": 3851,
      "Ġac": 3852,
      "ird": 3853,
      "ians": 3854,
      "Ġà®¨à®Łà®©à®Ļ": 3855,
      "1867": 3856,
      "Ġ1883": 3857,
      "Ġà®®à®£à®®à®ķà®³": 3858,
      "Ġhistory": 3859,
      "berg": 3860,
      "ious": 3861,
      "anguages": 3862,
      "print": 3863,
      "ĠÃĹ": 3864,
      "Ġmanagement": 3865,
      "ĠMadras": 3866,
      "ES": 3867,
      "Ã¼": 3868,
      "ÑĤ": 3869,
      "Ġar": 3870,
      "à®°à®ļà®®": 3871,
      "à®Łà®¯": 3872,
      "à®Łà®¯à®¤": 3873,
      "à®Łà®£à®¤": 3874,
      "à®®à®Łà®Ļ": 3875,
      "à®¯à®µà®¤": 3876,
      "Ġà®ªà®¤à®©": 3877,
      "à®¨à®²à®®": 3878,
      "Ġà®¤à®°à®Ļ": 3879,
      "Ġ117": 3880,
      "à®³à®°à®Ļ": 3881,
      "à®Ĩà®µ": 3882,
      "à®Ĩà®´": 3883,
      "à®Ĩà®ķà®¤": 3884,
      "Ġà®Ĳà®µà®°": 3885,
      "Ġà®ĵà®µà®°": 3886,
      "à®¹à®©": 3887,
      "itle": 3888,
      "à®ļà®²à®¸": 3889,
      "urv": 3890,
      "ĠBrit": 3891,
      "ĠRam": 3892,
      "ĠEm": 3893,
      "rain": 3894,
      "ĠOx": 3895,
      "1886": 3896,
      "Ġ1885": 3897,
      "ichard": 3898,
      "Ġà®ĥà®µ": 3899,
      "ĠOfficial": 3900,
      "ĠAcademy": 3901,
      "AR": 3902,
      "CH": 3903,
      "Sp": 3904,
      "ca": 3905,
      "col": 3906,
      "ler": 3907,
      "name": 3908,
      "ya": 3909,
      "Ġ}": 3910,
      "à®®à®°à®Ļ": 3911,
      "à®¯à®µà®¨": 3912,
      "Ġà®®à®¯à®®": 3913,
      "Ġà®¤à®Łà®Ļ": 3914,
      "à®ĩà®°à®Ł": 3915,
      "Ġà®ıà®²": 3916,
      "à®ªà®°à®ļ": 3917,
      "à®ħà®ķà®¤": 3918,
      "aries": 3919,
      "Ġà®Īà®µ": 3920,
      "Ġà®ħà®ķà®¨": 3921,
      "Ġà®ħà®ķà®¸": 3922,
      "ĠServ": 3923,
      "ĠAustral": 3924,
      "à®¹à®µ": 3925,
      "ita": 3926,
      "Ġà®ªà®´à®¤": 3927,
      "Ġ9000": 3928,
      "Ġinter": 3929,
      "aps": 3930,
      "à®¯à®¨à®²": 3931,
      "Ġ1877": 3932,
      "Ġ1863": 3933,
      "1857": 3934,
      "ultural": 3935,
      "ĠMuseum": 3936,
      "umbers": 3937,
      "hysics": 3938,
      "Hz": 3939,
      "par": 3940,
      "uch": 3941,
      "Ø±": 3942,
      "Ġ#": 3943,
      "à®°à®ķà®°": 3944,
      "à®®à®©à®¤": 3945,
      "à®¯à®ļà®°": 3946,
      "à®ķà®³à®ķ": 3947,
      "Ġà®µà®©à®®": 3948,
      "Ġà®ļà®¹": 3949,
      "à¯į)-": 3950,
      "eration": 3951,
      "à®İà®³": 3952,
      "Ġà®µà®²à®¯à®®": 3953,
      "let": 3954,
      "ĠĠĠĠĠĠĠĠĠĠ": 3955,
      "omet": 3956,
      "ĠBer": 3957,
      "ĠRe": 3958,
      "adh": 3959,
      "Ġ1893": 3960,
      "ange": 3961,
      "1880": 3962,
      "1881": 3963,
      "Ġ1871": 3964,
      "Ġà®īà®²à®ķà®®à®¯à®®": 3965,
      "ongol": 3966,
      "eace": 3967,
      "III": 3968,
      "ukk": 3969,
      "ĠPublications": 3970,
      "Ed": 3971,
      "ael": 3972,
      "la": 3973,
      "now": 3974,
      "ãģ": 3975,
      "à¯į>": 3976,
      "à®°à®¤à®©": 3977,
      "à®°à®ªà®°à®£": 3978,
      "à®²à®ľ": 3979,
      "à®²à®°à®ļ": 3980,
      "à¯ĪâĢĿ": 3981,
      "Ġà®Ĩà®ķà®®": 3982,
      "Ġ115": 3983,
      "Ġà®µà®°à®µà®´": 3984,
      "à®¤à®®à®¤": 3985,
      "Ġà®ªà®²à®ª": 3986,
      "à®¤à®°à®ļà®©": 3987,
      "ergy": 3988,
      "Ġà®īà®±à®Ļ": 3989,
      "ories": 3990,
      "Ġà®Ĭà®®": 3991,
      "à®¤à®ķà®Ł": 3992,
      "à®īà®Ļ": 3993,
      "à®īà®¤à®µ": 3994,
      "à®īà®£à®°": 3995,
      "ĠSw": 3996,
      "ĠCenter": 3997,
      "omb": 3998,
      "ĠBBC": 3999,
      "à®Ĵà®¤": 4000,
      "ĠNe": 4001,
      "etic": 4002,
      "Ġbi": 4003,
      "à¶Ń": 4004,
      "à®ľà®¯à®¨à®ķà®°": 4005,
      "1869": 4006,
      "Ġ1888": 4007,
      "1871": 4008,
      "1872": 4009,
      "1876": 4010,
      "ublic": 4011,
      "ĠGuide": 4012,
      "ĠBooks": 4013,
      "ĠJournal": 4014,
      ")(": 4015,
      "Ġ00": 4016,
      "à®¿âĢĿ": 4017,
      "à®ªà®ķà®ª": 4018,
      "à®²à®¤à®©": 4019,
      "à®¯à®´": 4020,
      "à®µà®ļà®¨": 4021,
      "Ġà®¤à®²à®¤": 4022,
      "Ġà®¤à®³à®µ": 4023,
      "Ġà®Ĩà®ŀ": 4024,
      "à®Łà®®à®£": 4025,
      "Ġà®°à®®à®£": 4026,
      "à®ªà®°à®£à®®": 4027,
      "à®·à®²": 4028,
      "Ġà®Ĩà®°à®ŀ": 4029,
      "Ġà®¤à®°à®µà®°": 4030,
      "ĠAward": 4031,
      "ofile": 4032,
      "ĠMay": 4033,
      "ask": 4034,
      "oly": 4035,
      "Ġà®Ĩà®²à®©": 4036,
      "Ġ1600": 4037,
      "ĠDevelopment": 4038,
      "Ġ125": 4039,
      "ĠGod": 4040,
      "rew": 4041,
      "à®Ĳà®¯": 4042,
      "idd": 4043,
      "Ġtext": 4044,
      "php": 4045,
      "1883": 4046,
      "Ġà®µà®±à®Ł": 4047,
      "à®ªà®¯à®£à®¤": 4048,
      "Ġà®īà®´à®µà®°": 4049,
      "Ġ1862": 4050,
      "Ġ1869": 4051,
      "à¥Ģ": 4052,
      "ucle": 4053,
      "ĠComm": 4054,
      "ĠDavid": 4055,
      "af": 4056,
      "ba": 4057,
      "eer": 4058,
      "×¨": 4059,
      "Ġop": 4060,
      "à®¤à®¯à®Ļ": 4061,
      "à®¾;": 4062,
      "à®®à®µà®¤": 4063,
      "à®³à®¸": 4064,
      "à®£à®ķà®®": 4065,
      "Ġà®ĩà®ŀ": 4066,
      "Ġà®¨à®Ļ": 4067,
      "Ġà®İà®Łà®ª": 4068,
      "à®¤à®²à®ª": 4069,
      "à®ªà®°à®¨": 4070,
      "à®¯à®ķà®±": 4071,
      "Ġà®ħà®°à®ļà®®": 4072,
      "à®µà®®à®´": 4073,
      "à®īà®Łà®©": 4074,
      "Ġthat": 4075,
      "ental": 4076,
      "ĠNo": 4077,
      "ĠHer": 4078,
      "adi": 4079,
      "Ġcont": 4080,
      "Ġsp": 4081,
      "à¯į''": 4082,
      "à®Ĭà®¤": 4083,
      "ople": 4084,
      "à·ľ": 4085,
      "ĠKing": 4086,
      "à®ĵà®µ": 4087,
      "ude": 4088,
      "ews": 4089,
      "ove": 4090,
      "à¦®": 4091,
      "Ġform": 4092,
      "Ġonline": 4093,
      "organ": 4094,
      "1858": 4095,
      "order": 4096,
      "atti": 4097,
      "oyal": 4098,
      "Ġ9001": 4099,
      "\">": 4100,
      "PP": 4101,
      "aff": 4102,
      "bs": 4103,
      "han": 4104,
      "iet": 4105,
      "lor": 4106,
      "oo": 4107,
      "ration": 4108,
      "yan": 4109,
      "Ġare": 4110,
      "à¯į+": 4111,
      "à®¤à®¯à®¤": 4112,
      "à®°à®¤à®ª": 4113,
      "à®ªà®ķà®°": 4114,
      "à¯ĪâĢĻ": 4115,
      "inux": 4116,
      "1832": 4117,
      "ĠSpe": 4118,
      "ĠAcc": 4119,
      "à®¯à®µà®³": 4120,
      "à®±à®µà®ŀ": 4121,
      "à®®à®£à®²": 4122,
      "à®ĩà®¤à®´": 4123,
      "Ġ160": 4124,
      "ĠHe": 4125,
      "ĠInformation": 4126,
      "à·Ļ": 4127,
      "à®ĵà®®": 4128,
      "Ġhttps": 4129,
      "à¦¿": 4130,
      "1884": 4131,
      "1885": 4132,
      "each": 4133,
      "rench": 4134,
      "ĠAmerican": 4135,
      "DF": 4136,
      "MA": 4137,
      "lon": 4138,
      "mar": 4139,
      "Ġet": 4140,
      "Ġqu": 4141,
      "à®£à®µà®¤": 4142,
      "Ġà®ļà®¯à®©": 4143,
      "Ġ(,": 4144,
      "Ġà®ħà®±à®Ļ": 4145,
      "Ġà®ħà®°à®ļà®ķ": 4146,
      "à®ļà®©à®²": 4147,
      "à®İà®¯": 4148,
      "à®¤à®µà®ª": 4149,
      "atural": 4150,
      "1848": 4151,
      "à®īà®±à®µ": 4152,
      "à®ªà®©à®µà®±": 4153,
      "ĠMongol": 4154,
      "ctor": 4155,
      "reg": 4156,
      "reen": 4157,
      "ago": 4158,
      "à®¾.,": 4159,
      "une": 4160,
      "Ġà®ĩà®³à®ŀ": 4161,
      "Ġbl": 4162,
      "Ġ1864": 4163,
      "econ": 4164,
      "ĠGeo": 4165,
      "ĢâĶĢâĶĢâĶĢâĶ": 4166,
      "agnetic": 4167,
      "ictionary": 4168,
      "IT": 4169,
      "TC": 4170,
      "iod": 4171,
      "rat": 4172,
      "ÙĨ": 4173,
      "à®°à®£à®ª": 4174,
      "à®ªà®µà®³": 4175,
      "à®³à®ªà®¤": 4176,
      "Ġ118": 4177,
      "à®°à®®à®Ł": 4178,
      "à®¤à®®à®©": 4179,
      "Ġà®ķà®°à®Ļ": 4180,
      "à®İà®ĥà®ª": 4181,
      "atab": 4182,
      "Ġà®Īà®ª": 4183,
      "Ġà®Īà®®": 4184,
      "amy": 4185,
      "ume": 4186,
      "Ġsc": 4187,
      "erson": 4188,
      "Ġà®ªà®°à®®à®ļ": 4189,
      "Ġwork": 4190,
      "à¦°": 4191,
      "à®ĥà®ªà®°": 4192,
      "Ġ1884": 4193,
      "ĠChrist": 4194,
      "ears": 4195,
      "Ġà®Ķà®µ": 4196,
      "ĠRobert": 4197,
      "Hack": 4198,
      "Pa": 4199,
      "TP": 4200,
      "eh": 4201,
      "pos": 4202,
      "à®®à®ķà®°": 4203,
      "à®£à®°à®ļ": 4204,
      "à®¨à®³": 4205,
      "Ġà®¨à®µà®°": 4206,
      "âĢ¦": 4207,
      "à®ķà®¤à®®": 4208,
      "à®¯à®®à®±": 4209,
      "Ġà®ĩà®²à®µ": 4210,
      "Ġà®ªà®Łà®µ": 4211,
      "à®Ĩà®³": 4212,
      "Ġà®ħà®©à®²": 4213,
      "Ġà®Ĳà®¯à®ª": 4214,
      "ines": 4215,
      "à®ļà®®à®¯à®Ļ": 4216,
      "Ġ1850": 4217,
      "Ġ1848": 4218,
      "Ġà®ªà®©à®Ļ": 4219,
      "1799": 4220,
      "ĠGra": 4221,
      "à®µà®´à®Ļ": 4222,
      "Ġcell": 4223,
      "igital": 4224,
      "à¤²": 4225,
      "cean": 4226,
      "ĠĠĠĠĠĠĠĠĠĠĠĠĠĠĠĠĠĠĠĠĊ": 4227,
      "osp": 4228,
      "ĠTheory": 4229,
      "à¶¯": 4230,
      "cies": 4231,
      "cience": 4232,
      "Ġ1881": 4233,
      "1878": 4234,
      "Ġgu": 4235,
      "ources": 4236,
      "ible": 4237,
      "rowspan": 4238,
      "ĠClass": 4239,
      "lexander": 4240,
      "itecture": 4241,
      "urrent": 4242,
      "ĠPhilosophy": 4243,
      "Col": 4244,
      "ID": 4245,
      "eople": 4246,
      "not": 4247,
      "oot": 4248,
      "{|": 4249,
      "àª": 4250,
      "Ġ\\": 4251,
      "à®ªà®¯à®°": 4252,
      "à®²à®µà®ķ": 4253,
      "à®±à®¤à®©": 4254,
      "à®ļà®ªà®Ł": 4255,
      "à®ļà®²à®ķ": 4256,
      "Ġà®®à®²à®ª": 4257,
      "à®£à®µà®®": 4258,
      "Ġà®¤à®ķà®ª": 4259,
      "Ġà®µà®©à®¤": 4260,
      "Ġà®ħà®¹": 4261,
      "Ġà®¨à®Łà®®": 4262,
      "Ġà®Ĩà®°à®¤": 4263,
      "Ġ(),": 4264,
      "Ġà®¤à®®à®©": 4265,
      "à®²à®®à®²": 4266,
      "Ġà®ķà®°à®¨": 4267,
      "Ġà®ħà®²à®ļ": 4268,
      "Ġà®¯à®¤": 4269,
      "Ġà®ĵà®¨": 4270,
      "Ġà®ļà®°à®µà®£à®©": 4271,
      "à®ªà®²à®µ": 4272,
      "Ġà®®à®£à®±": 4273,
      "ĠCulture": 4274,
      "Ġà®ªà®¯à®¨": 4275,
      "ĠPo": 4276,
      "ĠMag": 4277,
      "anda": 4278,
      "Ġ1700": 4279,
      "Ġà®īà®¤à®¯à®®": 4280,
      "ĠHow": 4281,
      "reed": 4282,
      "Ġmat": 4283,
      "à·ĵ": 4284,
      "apt": 4285,
      "ows": 4286,
      "ĠAnd": 4287,
      "Ġà®ķà®µà®°à®ª": 4288,
      "Ġ1858": 4289,
      "Ġ1859": 4290,
      "Ġà®ľà®µà®¹à®°": 4291,
      "Ġedition": 4292,
      "lobal": 4293,
      "ĠGeoHack": 4294,
      "AA": 4295,
      "Co": 4296,
      "IP": 4297,
      "Per": 4298,
      "tt": 4299,
      "wik": 4300,
      "Ġq": 4301,
      "à®ªà®´à®¤": 4302,
      "Ġà®ªà®µà®©": 4303,
      "Ġà®ķà®ļà®ª": 4304,
      "Ġà®®à®ľ": 4305,
      "à®ªà®°à®©": 4306,
      "à®ļà®®à®ļ": 4307,
      "à®°à®ļà®Ļ": 4308,
      "ali": 4309,
      "ĠSm": 4310,
      "ĠSam": 4311,
      "itor": 4312,
      "à®®à®£à®ķ": 4313,
      "Ġ102": 4314,
      "roduction": 4315,
      "ĠEle": 4316,
      "ĠHen": 4317,
      "ĠGerman": 4318,
      "rab": 4319,
      "ula": 4320,
      "à¤¨": 4321,
      "Ġacc": 4322,
      "osph": 4323,
      "imes": 4324,
      "1866": 4325,
      "Ġ1861": 4326,
      "1859": 4327,
      "ĠProject": 4328,
      "ĠCommun": 4329,
      "ĠInternet": 4330,
      "University": 4331,
      "ĠSchool": 4332,
      "×Ļ×": 4333,
      "ĠEncyclopedia": 4334,
      "++": 4335,
      "Ab": 4336,
      "John": 4337,
      "SC": 4338,
      "TE": 4339,
      "outh": 4340,
      "vir": 4341,
      "{{": 4342,
      "Ð²": 4343,
      "Ġ`": 4344,
      "Ġall": 4345,
      "à¯į||": 4346,
      "Ġà®¶": 4347,
      "à®¤à®±à®²": 4348,
      "à¯Ĥ\"": 4349,
      "Ġ114": 4350,
      "à®ķà®°à®£": 4351,
      "à®ªà®¤à®¤": 4352,
      "Ġà®®à®±à®ķ": 4353,
      "Ġà®ªà®²à®ªà®Ł": 4354,
      "Ġà®ķà®£à®µ": 4355,
      "anj": 4356,
      "Ġà®®à®©à®ķ": 4357,
      "ats": 4358,
      "arb": 4359,
      "Ġà®Ĭà®£à®°": 4360,
      "ences": 4361,
      "Ġà®¹à®Ļ": 4362,
      "ament": 4363,
      "omas": 4364,
      "andard": 4365,
      "ĠBC": 4366,
      "ĠRef": 4367,
      "ĠRaj": 4368,
      "Ġ2023": 4369,
      "ĠNorth": 4370,
      "ĠLab": 4371,
      "Ġpages": 4372,
      "à®Ĳà®İà®¸": 4373,
      "Ġfl": 4374,
      "emb": 4375,
      "à·ļ": 4376,
      "apan": 4377,
      "ube": 4378,
      "Ġgen": 4379,
      "ichael": 4380,
      "ccdd": 4381,
      "puter": 4382,
      "ĠOxford": 4383,
      "ccddff": 4384,
      "1000": 4385,
      "Ex": 4386,
      "km": 4387,
      "ling": 4388,
      "ner": 4389,
      "tr": 4390,
      "top": 4391,
      "ua": 4392,
      "ÃŃ": 4393,
      "Ġeng": 4394,
      "ĠÏĢ": 4395,
      "Ŀ||": 4396,
      "à®²à®ķà®ª": 4397,
      "Ġà®ªà®ľ": 4398,
      "Ġà®ķà®©à®°": 4399,
      "Ġà®µà®Łà®¤": 4400,
      "Ġà®ħà®±à®¤": 4401,
      "Ġà®Ĩà®´à®¤": 4402,
      "Ġà®īà®®à®°": 4403,
      "à®¤à®©à®ķ": 4404,
      "à®ĩà®µà®©": 4405,
      "à®¯à®®à®®": 4406,
      "à®Łà®°à®ļ": 4407,
      "Ġà®ļà®®à®ª": 4408,
      "à®·à®£": 4409,
      "à®·à®¯à®Ļ": 4410,
      "à®Łà®ªà®Ļ": 4411,
      "Ġà®ħà®´à®±": 4412,
      "alt": 4413,
      "Ġà®®à®£à®¤": 4414,
      "à®µà®ķà®ļ": 4415,
      "ĠSk": 4416,
      "ĠCD": 4417,
      "ĠCrit": 4418,
      "ĠCross": 4419,
      "omsky": 4420,
      "olit": 4421,
      "ille": 4422,
      "Ġ106": 4423,
      "ĠNov": 4424,
      "ĠDo": 4425,
      "à¤¦": 4426,
      "à·Ĳ": 4427,
      "à·ĸ": 4428,
      "à·Ŀ||": 4429,
      "1868": 4430,
      "Ġ1875": 4431,
      "Ġ1878": 4432,
      "Ġ1866": 4433,
      "ĠTamils": 4434,
      "Ġ×ķ×": 4435,
      "ĠOpen": 4436,
      "ocument": 4437,
      "\";": 4438,
      "900": 4439,
      "IN": 4440,
      "].": 4441,
      "br": 4442,
      "di": 4443,
      "ii": 4444,
      "uz": 4445,
      "web": 4446,
      "²||": 4447,
      "ÃĹ": 4448,
      "Ġwww": 4449,
      "ĳ||": 4450,
      "ĺ||": 4451,
      "ŀ||": 4452,
      "Ł||": 4453,
      "Ġà®ķà®ļà®ķ": 4454,
      "à®´à®ļ": 4455,
      "à®¯à®®à®©à®®": 4456,
      "à®ķà®µà®´à®ķ": 4457,
      "Ġà®°à®©": 4458,
      "Ġà®ķà®²à®µà®°à®¤": 4459,
      "eries": 4460,
      "alai": 4461,
      "aria": 4462,
      "araj": 4463,
      "Ġà®ħà®µà®ļà®°": 4464,
      "1815": 4465,
      "ĠChe": 4466,
      "ĠAp": 4467,
      "Ġà®ķà®©à®ķ": 4468,
      "omics": 4469,
      "ĠRed": 4470,
      "ĠNetwork": 4471,
      "Ġà®ķà®®à®ķà®®": 4472,
      "Ġ1300": 4473,
      "Ġsub": 4474,
      "à¤¸": 4475,
      "à¤Ĥ": 4476,
      "Ġab": 4477,
      "à·Ľ": 4478,
      "à·²||": 4479,
      "à·ĳ||": 4480,
      "à·ĺ||": 4481,
      "à·ŀ||": 4482,
      "à·Ł||": 4483,
      "Ġwe": 4484,
      "ĠChomsky": 4485,
      "à®¤à®³à®ªà®¤": 4486,
      "Ġ1873": 4487,
      "1877": 4488,
      "ection": 4489,
      "ĠAng": 4490,
      "1854": 4491,
      "ipp": 4492,
      "ĠNews": 4493,
      "ĠProt": 4494,
      "active": 4495,
      "aterial": 4496,
      "à·Ĵ||": 4497,
      "à·Ĭ||": 4498,
      "à®°à®ķà®Łà®©à®ª": 4499,
      "à·ı||": 4500,
      "à·Ķ||": 4501,
      "à·ľ||": 4502,
      "à·Ļ||": 4503,
      "à·ĵ||": 4504,
      "à·Ĳ||": 4505,
      "à·ĸ||": 4506,
      "LE": 4507,
      "New": 4508,
      "Sc": 4509,
      "UN": 4510,
      "ban": 4511,
      "ker": 4512,
      "met": 4513,
      "yd": 4514,
      "Â²": 4515,
      "Ã¶": 4516,
      "Ġele": 4517,
      "à®ķà®ľ": 4518,
      "à®µà®²à®ª": 4519,
      "à®ķà®³à®±": 4520,
      "à®¨à®Łà®©à®®": 4521,
      "Ġà®ĩà®¯à®©": 4522,
      "Ġà®µà®Łà®²": 4523,
      "Ġà®īà®²à®Ļ": 4524,
      "Ġà®Ĵà®Ļ": 4525,
      "à®¸à®²": 4526,
      "à®¤à®©à®ª": 4527,
      "à®ªà®¤à®ķ": 4528,
      "à®ĩà®Łà®®": 4529,
      "à®ľà®²à®Ł": 4530,
      "Ġà®ıà®ľ": 4531,
      "Ġà®ªà®°à®ªà®°à®ª": 4532,
      "Ġà®Ĳà®¯à®®": 4533,
      "Ġà®ªà®¤à®Ļ": 4534,
      "à®ļà®®à®Ł": 4535,
      "Ġà®Ĭà®Łà®ķ": 4536,
      "Ġ1820": 4537,
      "Ġ1840": 4538,
      "Ġ450": 4539,
      "ional": 4540,
      "à®°à®ķà®Łà®©à®®": 4541,
      "ased": 4542,
      "elf": 4543,
      "ential": 4544,
      "ĠDay": 4545,
      "ĠHigh": 4546,
      "ĠHindu": 4547,
      "Ġ140": 4548,
      "à®ĵà®ª": 4549,
      "ĠStr": 4550,
      "1860": 4551,
      "1875": 4552,
      "ĠUnited": 4553,
      "ĉĉĉ": 4554,
      "Ġ1868": 4555,
      "Ġrel": 4556,
      "ants": 4557,
      "orge": 4558,
      "1851": 4559,
      "Intern": 4560,
      "à®īà®²à®ķà®ª": 4561,
      "ynam": 4562,
      "ĠEngineering": 4563,
      "à§ģ": 4564,
      "ĠMathematics": 4565,
      "à·ļ||": 4566,
      "IC": 4567,
      "Ne": 4568,
      "ON": 4569,
      "oz": 4570,
      "ps": 4571,
      "uel": 4572,
      "win": 4573,
      "à¯į|-": 4574,
      "à®¤à®Łà®Ļ": 4575,
      "à®©à®ķà®°": 4576,
      "à®µà®ķà®ª": 4577,
      "Ġà®ªà®³à®ª": 4578,
      "Ġà®ķà®°à®®": 4579,
      "à®ļà®ªà®¤": 4580,
      "à®¨à®¯à®®": 4581,
      "Ġà®¤à®µà®³": 4582,
      "à¯ĩ'": 4583,
      "Ġà®ļà®ķà®ª": 4584,
      "à¯ĭ:": 4585,
      "Ġà®īà®·": 4586,
      "à®ķà®¤à®°": 4587,
      "à®Łà®°à®Ļ": 4588,
      "Ġà®¤à®²à®µ": 4589,
      "à®ļà®®à®¯": 4590,
      "à®İà®µ": 4591,
      "alys": 4592,
      "Ġà®ħà®µà®ļà®°à®ķ": 4593,
      "Ġ1815": 4594,
      "Ġ1812": 4595,
      "ĠChem": 4596,
      "Ġà®µà®°à®²à®Ł": 4597,
      "à®²à®µà®´": 4598,
      "ĠMah": 4599,
      "ĠBr": 4600,
      "à®°à®µà®Ļ": 4601,
      "ĠLaw": 4602,
      "ĠDep": 4603,
      "ĠEur": 4604,
      "ader": 4605,
      "Ġint": 4606,
      "apital": 4607,
      "aker": 4608,
      "ĠâĤ": 4609,
      "ĠOnline": 4610,
      "ounc": 4611,
      "ethod": 4612,
      "ĠPublishing": 4613,
      "120": 4614,
      "??": 4615,
      "OS": 4616,
      "mit": 4617,
      "rol": 4618,
      "ule": 4619,
      "à±": 4620,
      "ðĿ": 4621,
      "Ġà°": 4622,
      "à®¤à®ķà®ķ": 4623,
      "à®¾!": 4624,
      "à®µà®ķà®µ": 4625,
      "Ġà®ħà®©à®¤": 4626,
      "Ġà®Ĩà®Łà®ª": 4627,
      "à®ľà®²": 4628,
      "Ġà®°à®£": 4629,
      "à®ķà®²à®ļ": 4630,
      "à®µà®©à®ķ": 4631,
      "Ġà®ķà®°à®ķ": 4632,
      "Ġà®Ĳà®¯à®©": 4633,
      "à®³à®©à®µ": 4634,
      "ales": 4635,
      "à®´à®ķà®©": 4636,
      "Ġ1830": 4637,
      "à®īà®µà®®": 4638,
      "Ġà®¹à®ķ": 4639,
      "ĠCity": 4640,
      "omen": 4641,
      "Ġ1799": 4642,
      "Ġ109": 4643,
      "ĠEl": 4644,
      "ĠFed": 4645,
      "Ġper": 4646,
      "Ġpubl": 4647,
      "unt": 4648,
      "Ġbook": 4649,
      "istry": 4650,
      "ogn": 4651,
      "Ġdo": 4652,
      "à·Ħ": 4653,
      "à¶»": 4654,
      "Ġ240": 4655,
      "1873": 4656,
      "Ġ1865": 4657,
      "athan": 4658,
      "ĠAncient": 4659,
      "Ġ1856": 4660,
      "Ġ×ĳ×": 4661,
      "ruction": 4662,
      "ĠØ§": 4663,
      "panish": 4664,
      "ĠPolit": 4665,
      "Eng": 4666,
      "Ġà®¤à®ķà®µà®±": 4667,
      "atabase": 4668,
      "ðĿĶ": 4669,
      "AF": 4670,
      "ER": 4671,
      "PA": 4672,
      "fin": 4673,
      "oe": 4674,
      "oon": 4675,
      "wo": 4676,
      "}}": 4677,
      "©×": 4678,
      "Î¼": 4679,
      "Ġ01": 4680,
      "Ġarch": 4681,
      "ł×": 4682,
      "à®¤à®ķà®ª": 4683,
      "à®¾/": 4684,
      "à®¾âĢĻ": 4685,
      "Ġà®ĩà®ĥà®¤": 4686,
      "Ġà®īà®¸": 4687,
      "Ġà®ķà®Łà®ª": 4688,
      "Ġà®°à®¸": 4689,
      "Ġà®ªà®Łà®²à®®": 4690,
      "Ġà®ªà®²à®¨": 4691,
      "à¯į);": 4692,
      "à®ķà®´à®ª": 4693,
      "à®µà®®à®±": 4694,
      "à®ļà®®à®°": 4695,
      "Ġà®ĩà®µà®³": 4696,
      "Ġà®Īà®´à®¨": 4697,
      "Ġ1827": 4698,
      "Ġ1845": 4699,
      "1812": 4700,
      "à®ķà®©à®ª": 4701,
      "Ġà®¹à®²": 4702,
      "à®°à®£à®°": 4703,
      "ĠCast": 4704,
      "ĠCivil": 4705,
      "ĠAlexander": 4706,
      "Ġà®µà®²à®¯à®Ļ": 4707,
      "ĠTrans": 4708,
      "Ġà®Ĩà®µà®£à®ķ": 4709,
      "olar": 4710,
      "à®Ĵà®´": 4711,
      "ely": 4712,
      "ĠRiver": 4713,
      "ĠNH": 4714,
      "roc": 4715,
      "ĠEth": 4716,
      "ĠHouse": 4717,
      "Ġdistrict": 4718,
      "osa": 4719,
      "Ġnumbers": 4720,
      "à®ĥà®±": 4721,
      "1874": 4722,
      "Ġhis": 4723,
      "iffer": 4724,
      "Ġvol": 4725,
      "index": 4726,
      "eylon": 4727,
      "echan": 4728,
      "ĠEduc": 4729,
      "ealth": 4730,
      "istorical": 4731,
      "ĠStatistics": 4732,
      "Ġà®ļà®ªà®°à®ķà®®": 4733,
      "Ġarticle": 4734,
      ")\"": 4735,
      "Ad": 4736,
      "IV": 4737,
      "Mar": 4738,
      "OR": 4739,
      "mi": 4740,
      "ming": 4741,
      "title": 4742,
      "uj": 4743,
      "ÙĪ": 4744,
      "Ġund": 4745,
      "Ġother": 4746,
      "ľ×": 4747,
      "à®²à®¤à®©à®¤": 4748,
      "à®²à®´à®ķà®°": 4749,
      "à®©à®ķà®®": 4750,
      "Ġà®ĩà®Łà®ķ": 4751,
      "à¯ĩ;": 4752,
      "à®±à®¤à®±": 4753,
      "à®¤à®®à®±": 4754,
      "à®ħà®®à®°": 4755,
      "Ġà®ħà®µà®°à®µà®°": 4756,
      "Ġà®Ĳà®Ł": 4757,
      "Ġà®ħà®´à®ķà®°": 4758,
      "Ġ365": 4759,
      "Ġà®Īà®´à®ķ": 4760,
      "Ġà®ļà®°à®µ": 4761,
      "Ġ1847": 4762,
      "1850": 4763,
      "ices": 4764,
      "ĠSing": 4765,
      "ĠSec": 4766,
      "ĠCa": 4767,
      "Ġ6000": 4768,
      "ĠTig": 4769,
      "ĠTele": 4770,
      "lege": 4771,
      "ĠMe": 4772,
      "urg": 4773,
      "aster": 4774,
      "ĠEss": 4775,
      "ush": 4776,
      "à®²à®µà®°à®ª": 4777,
      "à®ıà®ķ": 4778,
      "ĠWilliam": 4779,
      "Ġà®µà®ļà®©à®¤": 4780,
      "à·ĥ": 4781,
      "cif": 4782,
      "à¯ģ\",": 4783,
      "à¯ģ\".": 4784,
      "udd": 4785,
      "Ġname": 4786,
      "1852": 4787,
      "1855": 4788,
      "uclear": 4789,
      "alysis": 4790,
      "ĠØ§ÙĦ": 4791,
      "De": 4792,
      "IL": 4793,
      "Man": 4794,
      "NH": 4795,
      "Rom": 4796,
      "ka": 4797,
      "lin": 4798,
      "las": 4799,
      "pect": 4800,
      "Ķ×": 4801,
      "Ġà®£": 4802,
      "à®¿?": 4803,
      "à®¯à®£à®ķ": 4804,
      "à®±à®°à®ļ": 4805,
      "à®ļà®©à®°": 4806,
      "à®¨à®°à®®": 4807,
      "Ġà®¤à®ļà®°": 4808,
      "Ġà®ħà®ļà®®": 4809,
      "Ġà®¨à®µà®°à®¤": 4810,
      "à®ªà®Łà®ļ": 4811,
      "Ġà®Ĩà®¤à®®": 4812,
      "Ġ(-": 4813,
      "à®¯à®°à®³à®µ": 4814,
      "Ġà®µà®°à®£": 4815,
      "001": 4816,
      "à®ķà®µà®³": 4817,
      "Ġà®ıà®Ļ": 4818,
      "Ġà®ħà®¤à®°": 4819,
      "Ġà®īà®°à®Ļ": 4820,
      "à®ħà®³": 4821,
      "Ġà®ªà®°à®Ļ": 4822,
      "à®·à®ª": 4823,
      "ĠĠĠĠĠĊ": 4824,
      "ony": 4825,
      "alog": 4826,
      "arri": 4827,
      "à®²à®ªà®®": 4828,
      "à®±à®®à®³": 4829,
      "1844": 4830,
      "ĠPat": 4831,
      "urai": 4832,
      "ington": 4833,
      "ĠEast": 4834,
      "ĠGovernment": 4835,
      "Ġcan": 4836,
      "à¯Ģ.,": 4837,
      "cept": 4838,
      "à·Ģ": 4839,
      "à¶«": 4840,
      "à®ľà®¯à®¨à®ķà®°à®ª": 4841,
      "iana": 4842,
      "Ġnumber": 4843,
      "ĠState": 4844,
      "Ġ1874": 4845,
      "ĠUnion": 4846,
      "Thir": 4847,
      "aint": 4848,
      "ense": 4849,
      "uck": 4850,
      "ship": 4851,
      "azine": 4852,
      "ennai": 4853,
      "ĠElectric": 4854,
      "ĠAustralia": 4855,
      "EN": 4856,
      "On": 4857,
      "SS": 4858,
      "cer": 4859,
      "cul": 4860,
      "sub": 4861,
      "van": 4862,
      "ÏĮ": 4863,
      "à®ķà®£à®ª": 4864,
      "à®©à®µà®³": 4865,
      "Ġà®ļà®²à®µ": 4866,
      "Ġà®īà®ªà®°": 4867,
      "Ġà®Ĵà®¸": 4868,
      "à®¤à®©à®ļ": 4869,
      "à®¯à®®à®©": 4870,
      "à®ľà®¯à®²à®Ł": 4871,
      "à®¤à®°à®£": 4872,
      "à®ħà®²à®ķ": 4873,
      "à®İà®©à®ķ": 4874,
      "Ġà®ħà®´à®ķà®ª": 4875,
      "Ġà®Īà®´à®®": 4876,
      "Ġ1824": 4877,
      "Ġ1837": 4878,
      "1845": 4879,
      "1846": 4880,
      "1849": 4881,
      "1833": 4882,
      "esa": 4883,
      "itz": 4884,
      "ĠTor": 4885,
      "ĠPort": 4886,
      "ĠMov": 4887,
      "asp": 4888,
      "hel": 4889,
      "Ġ104": 4890,
      "ĠReg": 4891,
      "ĠFact": 4892,
      "ĠFilm": 4893,
      "à®Ĳà®ļ": 4894,
      "adio": 4895,
      "rah": 4896,
      "à®ıà®µ": 4897,
      "ĠWik": 4898,
      "ĠOcean": 4899,
      "ote": 4900,
      "aya": 4901,
      "ody": 4902,
      "ĠJames": 4903,
      "Ġà®ªà®°à®®à®ķ": 4904,
      "apter": 4905,
      "udio": 4906,
      "Ġone": 4907,
      "ific": 4908,
      "ather": 4909,
      "ept": 4910,
      "Ġ1854": 4911,
      "ĠProgram": 4912,
      "acter": 4913,
      "Ġà®ªà®°à®¤à®¨": 4914,
      "ĠArchae": 4915,
      "iya": 4916,
      "ĠĠĠĠĠĠĠĠĠĠĠĠĠĠĠĠĠĠĠĠĠĠĠĠĠĠĠĠĠĠĠĠĠĠĠĠĠĠĠĠĠĠĠĠĠĠĠĠĠĠĠĠĠĠĠĠĠĠĠĠĠĠĠĠĠĠĠĠĠĠĠĠĠĠĠĠĠĠĠĠĠĠĠĠĠĠĠĠĠĠĠĠĠĠĠĠĠĠĠĠĠĠĠĠĠĠĠĠĠĠĠĠĠĠĠĠĠĠĠĠĠĠĠĠĠĠĠĠ": 4917,
      "MCML": 4918,
      "viron": 4919,
      "AP": 4920,
      "be": 4921,
      "cis": 4922,
      "nd": 4923,
      "och": 4924,
      "|}": 4925,
      "Îº": 4926,
      "Ð»": 4927,
      "áĥ": 4928,
      "à¯¦": 4929,
      "à®°à®µà®ķ": 4930,
      "à®ªà®µà®²": 4931,
      "à®²à®ķà®µ": 4932,
      "à®£à®ķà®¤": 4933,
      "Ġà®Ĩà®µà®Ł": 4934,
      "à¯į,\"": 4935,
      "à®©à®°à®®": 4936,
      "Ġà®ıà®ķà®®": 4937,
      "à®µà®©à®ª": 4938,
      "Ġà®ħà®±à®ª": 4939,
      "Ġà®Łà®®": 4940,
      "Ġà®ªà®¯à®©à®±": 4941,
      "inese": 4942,
      "arl": 4943,
      "Ġà®Īà®°à®²": 4944,
      "Ġ1825": 4945,
      "1840": 4946,
      "1834": 4947,
      "itar": 4948,
      "ites": 4949,
      "urth": 4950,
      "ĠBo": 4951,
      "ĠBro": 4952,
      "1782": 4953,
      "1789": 4954,
      "Ġ103": 4955,
      "ĠRet": 4956,
      "ĠDec": 4957,
      "à®ľà®©à®µà®°": 4958,
      "rem": 4959,
      "use": 4960,
      "à®Ĳà®ª": 4961,
      "ads": 4962,
      "raw": 4963,
      "Ġsk": 4964,
      "ida": 4965,
      "istic": 4966,
      "Ġdata": 4967,
      "âĢĻâĢĻ": 4968,
      "Ġnew": 4969,
      "Ġla": 4970,
      "aking": 4971,
      "à¦²": 4972,
      "à®°à®ªà®²à®®à®Ł": 4973,
      "Ġge": 4974,
      "rick": 4975,
      "Ġ×Ĳ×": 4976,
      "Ġreg": 4977,
      "à¯į]]": 4978,
      "ĠOrgan": 4979,
      "alayam": 4980,
      "ĠPaul": 4981,
      "vironment": 4982,
      "BH": 4983,
      "Dr": 4984,
      "Gen": 4985,
      "Na": 4986,
      "National": 4987,
      "TML": 4988,
      "bin": 4989,
      "bol": 4990,
      "eat": 4991,
      "fr": 4992,
      "jp": 4993,
      "war": 4994,
      "yp": 4995,
      "Î»": 4996,
      "Ġra": 4997,
      "à¯įâĢĵ": 4998,
      "à®¿!": 4999,
      "à®°à®ķà®©": 5000,
      "à®°à®µà®ª": 5001,
      "à®®à®¤à®©": 5002,
      "Ġà®ķà®ªà®Ł": 5003,
      "à®ļà®µà®©": 5004,
      "à®ļà®£à®®": 5005,
      "Ġà®®à®ķà®ª": 5006,
      "Ġà®¤à®µà®¤": 5007,
      "Ġà®µà®ļà®©": 5008,
      "Ġà®Ĩà®ªà®°": 5009,
      "Ġà®īà®µ": 5010,
      "Ġ('": 5011,
      "Ġà®Ĵà®®": 5012,
      "à®¯à®²à®ķà®®": 5013,
      "ĠâĢ¦": 5014,
      "à®ľà®¯à®°": 5015,
      "à®ľà®ªà®ķ": 5016,
      "à®²à®®à®Ł": 5017,
      "Ġà®ħà®²à®ª": 5018,
      "Ġà®ªà®°à®ķ": 5019,
      "anet": 5020,
      "Ġà®ªà®£à®ª": 5021,
      "aras": 5022,
      "enz": 5023,
      "1822": 5024,
      "ico": 5025,
      "icus": 5026,
      "ĠSI": 5027,
      "ĠMac": 5028,
      "ĠMinist": 5029,
      "uri": 5030,
      "asc": 5031,
      "1798": 5032,
      "Ġ1796": 5033,
      "ĠRichard": 5034,
      "edu": 5035,
      "struction": 5036,
      "chi": 5037,
      "ĠNations": 5038,
      "ĠNadu": 5039,
      "ĠDictionary": 5040,
      "ĠField": 5041,
      "ĠFamily": 5042,
      "ivity": 5043,
      "Ġsup": 5044,
      "108": 5045,
      "à®ıà®¤": 5046,
      "Ġà®·à®Ļ": 5047,
      "Ġinclud": 5048,
      "rix": 5049,
      "ĠJul": 5050,
      "ĠJose": 5051,
      "apuram": 5052,
      "à¶º": 5053,
      "Ġ270": 5054,
      "ava": 5055,
      "avan": 5056,
      "aik": 5057,
      "arts": 5058,
      "uther": 5059,
      "uthor": 5060,
      "ronic": 5061,
      "ĠArchitecture": 5062,
      "ĠBlack": 5063,
      "ÂłÂłÂłÂłÂłÂłÂłÂł": 5064,
      "ĠAmerica": 5065,
      "ĠAsia": 5066,
      "ĠPrize": 5067,
      "Ġà®ªà®³à®ªà®³à®ª": 5068,
      "->": 5069,
      "115": 5070,
      "LA": 5071,
      "RC": 5072,
      "SR": 5073,
      "XX": 5074,
      "rand": 5075,
      "rel": 5076,
      "we": 5077,
      "wood": 5078,
      "Ã¤": 5079,
      "Ø¯": 5080,
      "ÙĬ": 5081,
      "Ġev": 5082,
      "à®ªà®´à®¨": 5083,
      "à®ªà®´à®©": 5084,
      "à®²à®Łà®®": 5085,
      "à®¯à®¯": 5086,
      "à®µà®ļà®Ļ": 5087,
      "Ġà®ķà®³à®ķ": 5088,
      "à®£à®¯à®ļ": 5089,
      "à®¨à®¯": 5090,
      "Ġà®µà®²à®Ļ": 5091,
      "Ġà®İà®®à®©": 5092,
      "Ġà®Ĩà®µà®²": 5093,
      "à¯Ĥ-": 5094,
      "Ġà®ĩà®°à®ķà®Ļ": 5095,
      "à®¸à®°": 5096,
      "à®Łà®¤à®®": 5097,
      "à®ĩà®Łà®¤": 5098,
      "Ġà®µà®°à®¤à®©": 5099,
      "Ġ220": 5100,
      "Ġà®ľà®¸": 5101,
      "Ġà®Łà®Ļ": 5102,
      "Ġà®Łà®¯à®²": 5103,
      "Ġà®ħà®°à®ļà®ªà®Ł": 5104,
      "Ġà®ªà®°à®ŀ": 5105,
      "anid": 5106,
      "Ġà®Ĳà®Ļ": 5107,
      "alue": 5108,
      "Ġ1814": 5109,
      "à®ķà®Łà®ļ": 5110,
      "à¯ĩ..": 5111,
      "ĠCH": 5112,
      "ĠCirc": 5113,
      "ĠCeylon": 5114,
      "Ġà®µà®²à®¯à®¤": 5115,
      "amm": 5116,
      "amin": 5117,
      "ĠPeace": 5118,
      "ĠMc": 5119,
      "ĠBas": 5120,
      "1796": 5121,
      "Ġ1750": 5122,
      "ĠIt": 5123,
      "ĠRights": 5124,
      "Ġtheory": 5125,
      "ĠHall": 5126,
      "usic": 5127,
      "agy": 5128,
      "agon": 5129,
      "agar": 5130,
      "ĠFound": 5131,
      "ival": 5132,
      "iving": 5133,
      "ident": 5134,
      "à®ıà®±à®¤": 5135,
      "ĠWe": 5136,
      "otos": 5137,
      "rim": 5138,
      "ĠKa": 5139,
      "à¶©": 5140,
      "à¶½": 5141,
      "Ġà®µà®Łà®®à®°": 5142,
      "Ġhave": 5143,
      "ector": 5144,
      "Ġstat": 5145,
      "Ġ1852": 5146,
      "1803": 5147,
      "1807": 5148,
      "ĠSocial": 5149,
      "Char": 5150,
      "ĠCollege": 5151,
      "rown": 5152,
      "Ġà®Ķà®°à®Ļ": 5153,
      "iscover": 5154,
      "ĠService": 5155,
      "ometry": 5156,
      "ĠGraham": 5157,
      "reedom": 5158,
      "osphere": 5159,
      "250": 5160,
      "As": 5161,
      "TR": 5162,
      "by": 5163,
      "date": 5164,
      "ger": 5165,
      "ksh": 5166,
      "ois": 5167,
      "ror": 5168,
      "Ã¨": 5169,
      "Îµ": 5170,
      "Ġ!": 5171,
      "Ġorgan": 5172,
      "à®¿++": 5173,
      "à®¾à¯į.": 5174,
      "à®®à®Łà®®": 5175,
      "à®®à®¤à®¤": 5176,
      "à®®à®ľ": 5177,
      "à®µà®³à®¤": 5178,
      "à®µà®ķà®©": 5179,
      "Ġà®ªà®¤à®¤": 5180,
      "à®ļà®¯à®°": 5181,
      "à®ļà®ķà®²": 5182,
      "à®¨à®Łà®°": 5183,
      "à¯ĩ:": 5184,
      "Ġà®ħà®ķà®£": 5185,
      "Ġà®İà®¤à®©": 5186,
      "à®¯à®²à®ķ": 5187,
      "à®ħà®¸": 5188,
      "Ġà®¤à®²à®µà®°à®²": 5189,
      "Ġà®Ĳà®ļà®ķ": 5190,
      "Ġà®®à®©à®µ": 5191,
      "Ġà®ªà®£à®¯à®ķ": 5192,
      "ency": 5193,
      "Ġ1801": 5194,
      "Ġ1826": 5195,
      "Ġ1844": 5196,
      "1837": 5197,
      "ĠSim": 5198,
      "ĠSup": 5199,
      "ami": 5200,
      "ĠPeter": 5201,
      "ĠPhysics": 5202,
      "à®±à®µà®³": 5203,
      "ombo": 5204,
      "ĠMy": 5205,
      "Ġà®ķà®µà®ļà®®": 5206,
      "ĠBe": 5207,
      "1795": 5208,
      "1788": 5209,
      "Ġà®¨à®®à®ļ": 5210,
      "Ġà®Ĩà®²à®¨": 5211,
      "2023": 5212,
      "ĠNA": 5213,
      "ĠDi": 5214,
      "ĠDesign": 5215,
      "ĠGram": 5216,
      "ĠGroup": 5217,
      "ĠFr": 5218,
      "adian": 5219,
      "à®µà®´à®®": 5220,
      "Ġtransl": 5221,
      "utt": 5222,
      "Ġap": 5223,
      "imation": 5224,
      "ĠJapan": 5225,
      "Ġworld": 5226,
      "ape": 5227,
      "à¶¬": 5228,
      "à¶®": 5229,
      "à¶ļ": 5230,
      "à®ħà®°à®ļà®°": 5231,
      "Ġ230": 5232,
      "à¦¤": 5233,
      "artin": 5234,
      "ally": 5235,
      "ransp": 5236,
      "ologist": 5237,
      "obel": 5238,
      "ords": 5239,
      "ultip": 5240,
      "ples": 5241,
      "1809": 5242,
      "ylon": 5243,
      "duct": 5244,
      "ĠParty": 5245,
      "ĠTeresa": 5246,
      "×¨×": 5247,
      "ouncil": 5248,
      "112": 5249,
      "Ap": 5250,
      "DT": 5251,
      "Di": 5252,
      "Fran": 5253,
      "Mad": 5254,
      "Sri": 5255,
      "cent": 5256,
      "ks": 5257,
      "ning": 5258,
      "ness": 5259,
      "oor": 5260,
      "tra": 5261,
      "way": 5262,
      "Ðº": 5263,
      "Ġĉ": 5264,
      "Ġrowspan": 5265,
      "à®°à®¯à®®": 5266,
      "à®ªà®¹": 5267,
      "à®²à®ŀ": 5268,
      "à®²à®µà®®": 5269,
      "à®¯à®©à®°": 5270,
      "Ġà®ªà®µà®°": 5271,
      "Ġà®ªà®©à®®": 5272,
      "à®¨à®£": 5273,
      "à®¨à®Łà®ª": 5274,
      "Ġà®µà®³à®ª": 5275,
      "Ġà®µà®ļà®ª": 5276,
      "Ġà®ħà®ķà®²à®ª": 5277,
      "Ġà®¨à®ķà®Ļ": 5278,
      "à®´à®Ł": 5279,
      "à®¸à®®": 5280,
      "à®¤à®²à®ķ": 5281,
      "à®µà®¤à®¤": 5282,
      "à®¯à®©à®®": 5283,
      "Ġà®ľà®°": 5284,
      "Ġà®ľà®Ł": 5285,
      "à®ħà®µà®±": 5286,
      "à®ħà®°à®Ļ": 5287,
      "à®ħà®¤à®±": 5288,
      "à®·à®¯à®¤": 5289,
      "inh": 5290,
      "ality": 5291,
      "alli": 5292,
      "Ġà®Īà®¤": 5293,
      "Ġà®ļà®°à®µà®£à®®": 5294,
      "Ġ1832": 5295,
      "Ġ1831": 5296,
      "1801": 5297,
      "1818": 5298,
      "1847": 5299,
      "1831": 5300,
      "à®īà®©à®ķ": 5301,
      "ĠCarn": 5302,
      "Ġ650": 5303,
      "ĠTest": 5304,
      "Ġà®ķà®©à®µà®³à®µ": 5305,
      "ĠMother": 5306,
      "urt": 5307,
      "urch": 5308,
      "olf": 5309,
      "à®ĩà®¤à®¯": 5310,
      "Ġ105": 5311,
      "Ġà®īà®¤à®¯": 5312,
      "ĠRuss": 5313,
      "ĠRao": 5314,
      "ĠLtd": 5315,
      "ĠEv": 5316,
      "Ġ128": 5317,
      "Ġà®īà®£à®µà®ķà®Ļ": 5318,
      "umin": 5319,
      "Ġsum": 5320,
      "idae": 5321,
      "Ġinformation": 5322,
      "emoc": 5323,
      "à¤¯": 5324,
      "ots": 5325,
      "ĠKey": 5326,
      "ĠKrish": 5327,
      "à¶±": 5328,
      "à¶´": 5329,
      "Ġlanguages": 5330,
      "à®ĥà®ļ": 5331,
      "ĠChennai": 5332,
      "eved": 5333,
      "1856": 5334,
      "à®Łà®¨à®®": 5335,
      "ffect": 5336,
      "onto": 5337,
      "ĠComp": 5338,
      "1804": 5339,
      "Ġcomp": 5340,
      "ĉĉĉĉĊ": 5341,
      "ĉĉĉĉĉĉĉĉĊ": 5342,
      "Ġimage": 5343,
      "ĠGeneral": 5344,
      "3000": 5345,
      "950": 5346,
      "IA": 5347,
      "Mon": 5348,
      "Rep": 5349,
      "cont": 5350,
      "har": 5351,
      "ij": 5352,
      "mail": 5353,
      "ney": 5354,
      "soft": 5355,
      "ware": 5356,
      "¢×": 5357,
      "Åį": 5358,
      "Ïĥ": 5359,
      "Ð´": 5360,
      "Ġit": 5361,
      "Ġest": 5362,
      "à®°à®ķà®µ": 5363,
      "à®ªà®ªà®Ł": 5364,
      "à®ļà®²à®¤": 5365,
      "à®ļà®Łà®Ļ": 5366,
      "à®¨à®²à®ķ": 5367,
      "à®¨à®°à®ļ": 5368,
      "Ġà®¤à®¯à®Ļ": 5369,
      "Ġà®ĩà®³à®ķ": 5370,
      "Ġà®īà®ªà®ª": 5371,
      "Ġ(:": 5372,
      "Ġà®ĩà®°à®ª": 5373,
      "à®ĩà®¯à®Ļ": 5374,
      "Ġà®ıà®ķà®ª": 5375,
      "Ġà®ķà®²à®ķà®¤": 5376,
      "Ġà®ķà®°à®ķà®°à®ª": 5377,
      "à®Ĩà®ķà®µ": 5378,
      "Ġà®ªà®°à®¤à®©": 5379,
      "à®·à®Ļ": 5380,
      "Ġà®ªà®¤à®ŀ": 5381,
      "inter": 5382,
      "ena": 5383,
      "Ġ1849": 5384,
      "Ġ1834": 5385,
      "1835": 5386,
      "1839": 5387,
      "à®īà®Łà®±": 5388,
      "Ġà®ĩà®Łà®ŀ": 5389,
      "ĠTemple": 5390,
      "ĠTechnology": 5391,
      "ĠPost": 5392,
      "ĠMa": 5393,
      "ĠMal": 5394,
      "ura": 5395,
      "andrum": 5396,
      "1776": 5397,
      "1783": 5398,
      "str": 5399,
      "ĠDistrict": 5400,
      "à®¨à®Łà®µà®Ł": 5401,
      "Ġpage": 5402,
      "ivision": 5403,
      "Ġdes": 5404,
      "opean": 5405,
      "à®ķà®¨à®²": 5406,
      "rieved": 5407,
      "ĠJan": 5408,
      "à¶¸": 5409,
      "cip": 5410,
      "udi": 5411,
      "Ġlink": 5412,
      "epend": 5413,
      "anta": 5414,
      "Ġreprint": 5415,
      "class": 5416,
      "ĠÎ¼": 5417,
      "ĠÎĶ": 5418,
      "ĠCollection": 5419,
      "ountry": 5420,
      "Ġwhich": 5421,
      "ĠPublishers": 5422,
      "ĠBiography": 5423,
      "Ġofficial": 5424,
      "ĠBritish": 5425,
      "urthy": 5426,
      "(\"": 5427,
      "?)": 5428,
      "Bl": 5429,
      "Le": 5430,
      "Off": 5431,
      "Ro": 5432,
      "ball": 5433,
      "key": 5434,
      "news": 5435,
      "ril": 5436,
      "rig": 5437,
      "sv": 5438,
      "wh": 5439,
      "Ã¦": 5440,
      "á¼": 5441,
      "Ġag": 5442,
      "à®©à®¤à®²": 5443,
      "à®©à®®à®©": 5444,
      "Ġà®ªà®¯à®±": 5445,
      "Ġà®ķà®³à®©": 5446,
      "Ġà®ķà®´à®²": 5447,
      "à®ļà®¯à®¤": 5448,
      "à®ķà®³à®©": 5449,
      "Ġà®®à®°à®ļ": 5450,
      "à®£à®²à®¤": 5451,
      "Ġà®¤à®³à®ķ": 5452,
      "à¯Ĥ/": 5453,
      "à¯ģ...": 5454,
      "à®ķà®°à®ķ": 5455,
      "à®ĩà®¤à®°": 5456,
      "à®ĩà®°à®ļ": 5457,
      "à®ĩà®Łà®ļ": 5458,
      "à®©à®°à®¤": 5459,
      "à®°à®®à®°": 5460,
      "à®ľà®µ": 5461,
      "à®¤à®°à®²": 5462,
      "Ġà®ªà®ķà®Ł": 5463,
      "à®ħà®ľ": 5464,
      "à®Łà®²à®ļ": 5465,
      "à®®à®©à®ļ": 5466,
      "iness": 5467,
      "atory": 5468,
      "Ġà®Ĭà®ļà®²": 5469,
      "Ġ1835": 5470,
      "Ġ1841": 5471,
      "1800": 5472,
      "1820": 5473,
      "1824": 5474,
      "à®īà®¨": 5475,
      "à®īà®´": 5476,
      "Ġà®¹à®Ł": 5477,
      "ĠSan": 5478,
      "ĠSem": 5479,
      "ĠCurrent": 5480,
      "Ġà®īà®²à®ķà®ļ": 5481,
      "ĠPower": 5482,
      "ĠModern": 5483,
      "ĠMichael": 5484,
      "Ġ8000": 5485,
      "Ġà®Ĩà®µà®£à®¤": 5486,
      "à®Łà®µà®³": 5487,
      "ĠBal": 5488,
      "Ġ1788": 5489,
      "Ġà®īà®¤à®ķà®®à®£": 5490,
      "ingham": 5491,
      "ĠLim": 5492,
      "ĠLine": 5493,
      "ĠLDL": 5494,
      "ĠDef": 5495,
      "ĠDNA": 5496,
      "ĠFrom": 5497,
      "ĠForm": 5498,
      "raft": 5499,
      "istot": 5500,
      "à¤µ": 5501,
      "à¤ķ": 5502,
      "Ġ113": 5503,
      "à®Īà®Ł": 5504,
      "osm": 5505,
      "osis": 5506,
      "Ġ234": 5507,
      "ocol": 5508,
      "iff": 5509,
      "ification": 5510,
      "athi": 5511,
      "1853": 5512,
      "indows": 5513,
      "Ġ1851": 5514,
      "ught": 5515,
      "à´¿": 5516,
      "ustice": 5517,
      "ĠThomas": 5518,
      "à®īà®²à®ķà®¤": 5519,
      "irect": 5520,
      "ĠScient": 5521,
      "rade": 5522,
      "Ġprint": 5523,
      "ĠRevolution": 5524,
      "Ġà®¤à®ķà®µà®®": 5525,
      "----------------": 5526,
      "ĠCentre": 5527,
      "ĠTriv": 5528,
      "ĠWebsite": 5529,
      "ĠAfrican": 5530,
      "ĠHenry": 5531,
      "ĠâĤ¹": 5532,
      "anidhi": 5533,
      "113": 5534,
      "AD": 5535,
      "TS": 5536,
      "Ur": 5537,
      "cast": 5538,
      "din": 5539,
      "sch": 5540,
      "ten": 5541,
      "tic": 5542,
      "uan": 5543,
      "ues": 5544,
      "Ġo": 5545,
      "Ġass": 5546,
      "Ġits": 5547,
      "Ġalso": 5548,
      "à®°à®µà®²": 5549,
      "à®Łà®µà®®": 5550,
      "à®ªà®²à®ª": 5551,
      "Ġà®ĩà®ķà®´": 5552,
      "Ġà®µà®²à®ķ": 5553,
      "Ġà®ļà®°à®ª": 5554,
      "Ġà®ħà®ĥà®¤": 5555,
      "à®¯à®°à®ļà®°": 5556,
      "Ġ216": 5557,
      "à®¤à®®à®ª": 5558,
      "à®¤à®®à®£": 5559,
      "à®ķà®²à®µà®°à®®": 5560,
      "à®¤à®°à®ŀ": 5561,
      "à®ªà®°à®£à®¤": 5562,
      "Ġà®ľà®¯à®µà®°": 5563,
      "à®£à®®à®Ļ": 5564,
      "ero": 5565,
      "ĠĠĠĠĠĠĊ": 5566,
      "ones": 5567,
      "à®ļà®®à®£": 5568,
      "Ġà®ĵà®°à®Ļ": 5569,
      "Ġ1822": 5570,
      "1813": 5571,
      "1830": 5572,
      "1821": 5573,
      "1825": 5574,
      "1827": 5575,
      "icago": 5576,
      "ther": 5577,
      "ĠSe": 5578,
      "ĠCouncil": 5579,
      "ĠAC": 5580,
      "Ġ7000": 5581,
      "ĠMor": 5582,
      "ĠMet": 5583,
      "Ġà®Ĭà®°à®ķ": 5584,
      "astern": 5585,
      "ĠBy": 5586,
      "1775": 5587,
      "1792": 5588,
      "Ġ1620": 5589,
      "rough": 5590,
      "ĠDon": 5591,
      "ĠEst": 5592,
      "ĠHand": 5593,
      "ĠGreat": 5594,
      "ĠFree": 5595,
      "ĠFirst": 5596,
      "Ġcons": 5597,
      "Ġ133": 5598,
      "ops": 5599,
      "ayan": 5600,
      "osc": 5601,
      "ĠVir": 5602,
      "à¶ª": 5603,
      "à®¯à®£à®ļ": 5604,
      "à®ĵà®ļ": 5605,
      "udok": 5606,
      "eck": 5607,
      "Ġ1855": 5608,
      "plor": 5609,
      "Ġproject": 5610,
      "And": 5611,
      "ĠXP": 5612,
      "plex": 5613,
      "berty": 5614,
      "ĠArchives": 5615,
      "Ġà®ĩà®Łà®µà®ļà®¤": 5616,
      "ouis": 5617,
      "ĠPeriod": 5618,
      "Indian": 5619,
      "ĠSubba": 5620,
      "type": 5621,
      "blog": 5622,
      "ĠCharles": 5623,
      "inguistics": 5624,
      "International": 5625,
      "()": 5626,
      "117": 5627,
      "BM": 5628,
      "Cor": 5629,
      "Cont": 5630,
      "Elect": 5631,
      "Sam": 5632,
      "Wh": 5633,
      "data": 5634,
      "graph": 5635,
      "lid": 5636,
      "uit": 5637,
      "Ġob": 5638,
      "à¯į=": 5639,
      "à®®à®Łà®²": 5640,
      "à¯Ī!": 5641,
      "Ġà®ķà®·": 5642,
      "Ġà®µà®¯à®ļ": 5643,
      "Ġà®ļà®³": 5644,
      "à¯ĭ'": 5645,
      "à®±à®¤à®°": 5646,
      "à®¯à®¤à®®": 5647,
      "Ġà®ĩà®¤à®¯à®ķ": 5648,
      "Ġ210": 5649,
      "à®³à®°à®µ": 5650,
      "à®ľà®¯à®¤": 5651,
      "à®²à®®à®Ļ": 5652,
      "Ġà®ıà®²à®ķ": 5653,
      "Ġà®ªà®Łà®²à®¤": 5654,
      "Ġà®ķà®²à®ķà®®": 5655,
      "Ġà®ļà®®à®£à®®": 5656,
      "Ġà®ªà®¤à®±": 5657,
      "inia": 5658,
      "ora": 5659,
      "1819": 5660,
      "icism": 5661,
      "isch": 5662,
      "Ġà®¹à®ļà®©": 5663,
      "ĠCBH": 5664,
      "ĠTable": 5665,
      "ĠTime": 5666,
      "Ġ850": 5667,
      "1791": 5668,
      "1707": 5669,
      "Ġ1790": 5670,
      "Ġ..": 5671,
      "elam": 5672,
      "ĠRoyal": 5673,
      "ĠDar": 5674,
      "ĠData": 5675,
      "ĠEp": 5676,
      "ĠHel": 5677,
      "ream": 5678,
      "read": 5679,
      "reak": 5680,
      "agn": 5681,
      "ade": 5682,
      "Ġcent": 5683,
      "ĠOld": 5684,
      "à®ĩà®°à®¯": 5685,
      "à®Ĭà®Łà®ķà®Ļ": 5686,
      "Ġder": 5687,
      "opot": 5688,
      "Ġmy": 5689,
      "à®Īà®´à®ª": 5690,
      "ried": 5691,
      "Ġwrit": 5692,
      "ability": 5693,
      "Ġ225": 5694,
      "https": 5695,
      "ĠStates": 5696,
      "lif": 5697,
      "Ġgovernment": 5698,
      "iform": 5699,
      "ques": 5700,
      "à¥ĩ": 5701,
      "Ġ×Ļ": 5702,
      "à´¾": 5703,
      "illa": 5704,
      "ize": 5705,
      "elev": 5706,
      "ervation": 5707,
      "ĠEdward": 5708,
      "Ġà®ľà®µà®ķà®°": 5709,
      "aleksh": 5710,
      "ĠIsland": 5711,
      "ĠReport": 5712,
      "ĠReview": 5713,
      "ycle": 5714,
      "ĠRagas": 5715,
      "ĠRaganidhi": 5716,
      "ĠBhagy": 5717,
      "ĠRelig": 5718,
      "vention": 5719,
      "Ġ×ķ×Ĳ×": 5720,
      "cific": 5721,
      "jpg": 5722,
      "ĠFoundation": 5723,
      "ĠCarnatic": 5724,
      "istotle": 5725,
      "ĠTrivandrum": 5726,
      "alekshmy": 5727,
      "ĠBhagyalekshmy": 5728,
      "\":": 5729,
      "110": 5730,
      "114": 5731,
      "AC": 5732,
      "Ath": 5733,
      "Cal": 5734,
      "ET": 5735,
      "French": 5736,
      "MP": 5737,
      "Micro": 5738,
      "Sw": 5739,
      "Spanish": 5740,
      "Vir": 5741,
      "William": 5742,
      "aut": 5743,
      "hu": 5744,
      "iri": 5745,
      "tage": 5746,
      "uild": 5747,
      "va": 5748,
      "vin": 5749,
      "yg": 5750,
      "Ä«": 5751,
      "Ø³": 5752,
      "à¨": 5753,
      "âĨĴ": 5754,
      "Ġam": 5755,
      "Ġ).": 5756,
      "Ġem": 5757,
      "à®ķà®Łà®°": 5758,
      "à®°à®ķà®ķ": 5759,
      "à®¯à®ŀ": 5760,
      "à®³à®µà®±": 5761,
      "à¯Ī]": 5762,
      "Ġà®®à®ķà®®": 5763,
      "à®£à®ļà®ª": 5764,
      "Ġà®Ĩà®ļà®©à®Ļ": 5765,
      "Ġà®ĩà®°à®¤à®®": 5766,
      "à®¤à®²à®ļ": 5767,
      "à®¯à®°à®®": 5768,
      "Ġà®µà®°à®Ł": 5769,
      "à®Łà®°à®ª": 5770,
      "Ġà®ħà®²à®©": 5771,
      "Ġà®Łà®Ł": 5772,
      "Ġà®ªà®°à®Ł": 5773,
      "anic": 5774,
      "Ġà®¯à®Ļ": 5775,
      "à®·à®¯à®®": 5776,
      "Ġà®¤à®²à®ª": 5777,
      "erence": 5778,
      "Ġà®µà®Łà®¨": 5779,
      "arr": 5780,
      "arat": 5781,
      "enk": 5782,
      "enberg": 5783,
      "à®²à®ªà®©": 5784,
      "Ġ1818": 5785,
      "Ġ1836": 5786,
      "Ġ1839": 5787,
      "Ġ1838": 5788,
      "Ġ1843": 5789,
      "esis": 5790,
      "à®ªà®²à®°": 5791,
      "à®ªà®²à®©": 5792,
      "Ġà®¹à®¤": 5793,
      "ĠAB": 5794,
      "ĠAct": 5795,
      "ĠApp": 5796,
      "à®¹à®¤": 5797,
      "à®¹à®¸": 5798,
      "itage": 5799,
      "Ġ750": 5800,
      "ĠMes": 5801,
      "ĠMem": 5802,
      "olid": 5803,
      "iles": 5804,
      "à®ĩà®²à®£": 5805,
      "Ġ175": 5806,
      "Ġthis": 5807,
      "ĠRob": 5808,
      "Ġà®ķà®´à®ķà®ª": 5809,
      "ĠNobel": 5810,
      "roph": 5811,
      "Ġ123": 5812,
      "Ġfirst": 5813,
      "Ġ145": 5814,
      "Ġà®¨à®ķà®°à®®à®¯à®®": 5815,
      "125": 5816,
      "ĠOut": 5817,
      "à¯Ģ.)": 5818,
      "utor": 5819,
      "opular": 5820,
      "Ġ1100": 5821,
      "Ġ05": 5822,
      "ĠInc": 5823,
      "ĠĠĠĠĠĠĠĠĠĠĠĠĠĠĠĠĠĠĠĠĠĠĠĠĠĠĠĠ": 5824,
      "odel": 5825,
      "Ġwas": 5826,
      "à®¿\",": 5827,
      "ards": 5828,
      "ĠUnivers": 5829,
      "ours": 5830,
      "Ġvan": 5831,
      "Ġ3500": 5832,
      "Ġreport": 5833,
      "ized": 5834,
      "1805": 5835,
      "echo": 5836,
      "Ġ1809": 5837,
      "ĠZeal": 5838,
      "ymbol": 5839,
      "Ġ-->": 5840,
      "ĠÂłĠÂł": 5841,
      "namurthy": 5842,
      "affna": 5843,
      "ĠLabor": 5844,
      "ĠEducation": 5845,
      "ĠArchaeology": 5846,
      "ĠFront": 5847,
      "ĠZealand": 5848,
      ")âĢĵ": 5849,
      "611": 5850,
      "Can": 5851,
      "DA": 5852,
      "SP": 5853,
      "action": 5854,
      "eam": 5855,
      "gov": 5856,
      "ja": 5857,
      "ve": 5858,
      "zh": 5859,
      "Ùĩ": 5860,
      "Ġad": 5861,
      "Ġup": 5862,
      "à®ķà®ļà®®": 5863,
      "à®¤à®³à®ª": 5864,
      "à®Łà®ķà®µ": 5865,
      "à®Łà®£à®Ļ": 5866,
      "à®©à®¯": 5867,
      "Ġà®µà®¸": 5868,
      "Ġà®µà®¤à®¨": 5869,
      "à¯Ĩ,": 5870,
      "Ġà®¨à®´": 5871,
      "Ġà®¨à®°à®ķ": 5872,
      "à¯ģ.(": 5873,
      "Ġ119": 5874,
      "à®ķà®°à®ķà®°à®ª": 5875,
      "à®ĩà®©à®ª": 5876,
      "ĠâĢ¢": 5877,
      "à®Łà®©à®¤": 5878,
      "0000": 5879,
      "à®¿...": 5880,
      "à®ľà®¯à®ļ": 5881,
      "à®Łà®°à®Ł": 5882,
      "Ġà®ľà®ķà®¤": 5883,
      "à®ħà®ķà®°": 5884,
      "Ġà®²à®¯à®®": 5885,
      "à®ļà®®à®ķ": 5886,
      "à®İà®²à®ķ": 5887,
      "Ġà®ªà®£à®µ": 5888,
      "à®ķà®£à®ªà®¤": 5889,
      "isk": 5890,
      "à®ªà®©à®¨": 5891,
      "ĠShe": 5892,
      "ĠCons": 5893,
      "Ġà®īà®¯à®°à®Ļ": 5894,
      "ĠAge": 5895,
      "Ġà®İà®²à®©": 5896,
      "amia": 5897,
      "Ġà®ĩà®Łà®®à®³": 5898,
      "Ġà®ķà®©à®ķà®°à®¤": 5899,
      "ĠMath": 5900,
      "à®®à®£à®ļ": 5901,
      "Ġà®Ĭà®°à®Łà®Ļ": 5902,
      "asa": 5903,
      "ĠBab": 5904,
      "1778": 5905,
      "Ġ170": 5906,
      "eds": 5907,
      "ster": 5908,
      "ĠNor": 5909,
      "ĠNight": 5910,
      "ĠLand": 5911,
      "ĠLiter": 5912,
      "à®¯à®µà®°à®®": 5913,
      "ĠEqu": 5914,
      "etics": 5915,
      "150": 5916,
      "Ġfunction": 5917,
      "Ġ144": 5918,
      "Ġscience": 5919,
      "ĠWay": 5920,
      "ĠOri": 5921,
      "Ġdi": 5922,
      "oto": 5923,
      "imate": 5924,
      "ĠUK": 5925,
      "ĠUN": 5926,
      "à®±à®µà®±à®®": 5927,
      "phone": 5928,
      "abl": 5929,
      "ĠStory": 5930,
      "à¦Ĥ": 5931,
      "ĠChina": 5932,
      "à¯Ī\",": 5933,
      "à®±à®°à®ļà®°": 5934,
      "à®īà®²à®ķà®ķ": 5935,
      "rich": 5936,
      "Ġ1853": 5937,
      "ugust": 5938,
      "Ġ×Ķ×": 5939,
      "à´¤": 5940,
      "à´°": 5941,
      "ideos": 5942,
      "spe": 5943,
      "ĠCompan": 5944,
      "ohann": 5945,
      "ottai": 5946,
      "ĠArchive": 5947,
      "Arch": 5948,
      "ription": 5949,
      "ĠAsian": 5950,
      "Ġà®ħà®µà®®à®¤": 5951,
      "ĠAfrica": 5952,
      "urvey": 5953,
      "ĠTigers": 5954,
      "Romance": 5955,
      "ĠToronto": 5956,
      "ĠRetrieved": 5957,
      "%;": 5958,
      "Cu": 5959,
      "El": 5960,
      "Li": 5961,
      "ST": 5962,
      "Sir": 5963,
      "World": 5964,
      "ied": 5965,
      "nan": 5966,
      "nation": 5967,
      "px": 5968,
      "rated": 5969,
      "vi": 5970,
      "ype": 5971,
      "Î¯": 5972,
      "ãĤ": 5973,
      "Ġear": 5974,
      "à®¤à®Łà®¤": 5975,
      "à®°à®ļà®°": 5976,
      "à®®à®¯à®ķ": 5977,
      "à®¯à®Łà®ķ": 5978,
      "à®ļà®ķà®Ļ": 5979,
      "Ġà®¤à®Łà®¤": 5980,
      "Ġà®¤à®³à®ª": 5981,
      "Ġà®ħà®ĩ": 5982,
      "Ġà®¨à®µà®¨": 5983,
      "Ġà®Ĩà®²à®ª": 5984,
      "Ġà®īà®©à®¤": 5985,
      "à¯ģ.,": 5986,
      "à®¯à®²à®ķà®¤": 5987,
      "à®¯à®©à®¤": 5988,
      "Ġà®ªà®²à®°à®¤": 5989,
      "Ġà®ķà®²à®ļ": 5990,
      "à®¤à®°à®ļà®®": 5991,
      "Ġà®ħà®°à®ļà®ª": 5992,
      "à®²à®ķà®ķ": 5993,
      "any": 5994,
      "anche": 5995,
      "à®·à®ķ": 5996,
      "Ġà®¨à®ķà®°à®ķ": 5997,
      "Ġà®¤à®©à®²à®Ł": 5998,
      "à®ļà®©à®ª": 5999,
      "à®ķà®´à®ķà®ª": 6000,
      "Ġà®ĵà®°à®¤": 6001,
      "à®¤à®µà®£": 6002,
      "à®©à®®à®°": 6003,
      "Ġà®İà®¤à®±": 6004,
      "Ġà®ħà®µà®²": 6005,
      "Ġ1819": 6006,
      "Ġ1846": 6007,
      "1841": 6008,
      "à®ķà®©à®ķ": 6009,
      "isation": 6010,
      "ĠSea": 6011,
      "ĠCong": 6012,
      "à®¹à®²": 6013,
      "itary": 6014,
      "itable": 6015,
      "Ġà®¤à®Łà®ķà®³": 6016,
      "ĠMun": 6017,
      "Ġà®ļà®¤à®ķà®®": 6018,
      "andhi": 6019,
      "ĠBar": 6020,
      "1780": 6021,
      "Ġ1792": 6022,
      "Ġ1783": 6023,
      "ĠRF": 6024,
      "ĠRadio": 6025,
      "ĠNO": 6026,
      "ĠFe": 6027,
      "iva": 6028,
      "Ġ148": 6029,
      "à®µà®£à®ķ": 6030,
      "à¯į'.": 6031,
      "104": 6032,
      "istance": 6033,
      "Ġinto": 6034,
      "Ġtrans": 6035,
      "ems": 6036,
      "iah": 6037,
      "utch": 6038,
      "à¤ª": 6039,
      "opp": 6040,
      "oper": 6041,
      "erspect": 6042,
      "Ġ275": 6043,
      "avi": 6044,
      "artment": 6045,
      "ourt": 6046,
      "ĠAnt": 6047,
      "Ġâī": 6048,
      "ĠEnergy": 6049,
      "pert": 6050,
      "Ġ×ŀ×": 6051,
      "illai": 6052,
      "ensity": 6053,
      "ondu": 6054,
      "ender": 6055,
      "ographic": 6056,
      "ĠÎ¸": 6057,
      "ength": 6058,
      "axon": 6059,
      "ĠLankan": 6060,
      "Ġprofile": 6061,
      "Ġà®ĩà®³à®µà®¯à®¤": 6062,
      "ĠVolume": 6063,
      "ercul": 6064,
      "ĠIntroduction": 6065,
      "Ġà®ķà®©à®ķà®ļà®ª": 6066,
      "ĠEconomics": 6067,
      "Ġà®Ĩà®ķà®®à®Ļ": 6068,
      "Ġà®Ĩà®ªà®°à®£à®Ļ": 6069,
      "Ġà®ħà®ĩà®ħà®¤": 6070,
      "*)": 6071,
      ".).": 6072,
      "CD": 6073,
      "ED": 6074,
      "Em": 6075,
      "Fl": 6076,
      "For": 6077,
      "Gu": 6078,
      "HE": 6079,
      "Im": 6080,
      "Kal": 6081,
      "OL": 6082,
      "OP": 6083,
      "PS": 6084,
      "Qu": 6085,
      "US": 6086,
      "bc": 6087,
      "bi": 6088,
      "cal": 6089,
      "lam": 6090,
      "no": 6091,
      "oul": 6092,
      "population": 6093,
      "tual": 6094,
      "var": 6095,
      "à®¶": 6096,
      "à®¯à®£à®ª": 6097,
      "à®³à®ķà®¤": 6098,
      "à®±à®µà®ķ": 6099,
      "à®µà®£à®Ļ": 6100,
      "Ġà®ªà®ķà®°": 6101,
      "à®ļà®³à®°": 6102,
      "à®ķà®³à®Łà®°": 6103,
      "à®£à®°à®ª": 6104,
      "Ġà®µà®¤à®®": 6105,
      "Ġà®µà®³à®µ": 6106,
      "Ġà®ļà®·": 6107,
      "Ġà®ħà®Łà®®": 6108,
      "Ġà®®à®±à®µà®°": 6109,
      "à®ķà®¤à®µ": 6110,
      "à®¯à®®à®¤": 6111,
      "Ġà®µà®°à®Ļ": 6112,
      "Ġà®ħà®°à®µà®ķ": 6113,
      "Ġà®ķà®£à®©": 6114,
      "à®Łà®ķà®©": 6115,
      "à®ļà®©à®ķ": 6116,
      "à®ķà®´à®ķà®ķ": 6117,
      "Ġà®²à®¯": 6118,
      "à®ļà®®à®µ": 6119,
      "Ġà®ĩà®ļà®ª": 6120,
      "Ġà®ĵà®®à®²": 6121,
      "arly": 6122,
      "Ġà®ļà®°à®³": 6123,
      "Ġ1833": 6124,
      "1826": 6125,
      "1829": 6126,
      "1843": 6127,
      "Ġà®īà®Łà®²à®®": 6128,
      "ison": 6129,
      "Ġà®¹à®°à®ª": 6130,
      "Ġà®īà®²à®ķà®Ļ": 6131,
      "ĠTop": 6132,
      "ĠTour": 6133,
      "ĠTransl": 6134,
      "oment": 6135,
      "ĠMark": 6136,
      "à®Ĵà®¯": 6137,
      "à®Ĵà®ļ": 6138,
      "1794": 6139,
      "1762": 6140,
      "Ġthrough": 6141,
      "eli": 6142,
      "inger": 6143,
      "strum": 6144,
      "ĠLinux": 6145,
      "ĠDigital": 6146,
      "ĠDatabase": 6147,
      "ĠHealth": 6148,
      "ĠHTML": 6149,
      "||<": 6150,
      "1658": 6151,
      "ĠGard": 6152,
      "ĠGold": 6153,
      "à®ªà®£à®ķ": 6154,
      "à®¾.:": 6155,
      "Ġfile": 6156,
      "Ġfilm": 6157,
      "Ġà®ħà®³à®¨": 6158,
      "Ġ135": 6159,
      "igin": 6160,
      "ista": 6161,
      "ĠWrit": 6162,
      "ĠOper": 6163,
      "Ġ06": 6164,
      "ayer": 6165,
      "ries": 6166,
      "imal": 6167,
      "imel": 6168,
      "ĠView": 6169,
      "ĠChand": 6170,
      "ĠChapter": 6171,
      "ocarp": 6172,
      "ourse": 6173,
      "Ġvideo": 6174,
      "Ġvalue": 6175,
      "ĠAnth": 6176,
      "ĠAristotle": 6177,
      "ibli": 6178,
      "ĠPres": 6179,
      "ugu": 6180,
      "à®ĩà®®à®¯à®®à®²": 6181,
      "perm": 6182,
      "ĠOne": 6183,
      "Inter": 6184,
      "ensive": 6185,
      "1806": 6186,
      "Ġ1803": 6187,
      "à®īà®²à®ķà®³": 6188,
      "Ġyears": 6189,
      "erver": 6190,
      "Ġcommun": 6191,
      "à¯į?\"": 6192,
      "iyar": 6193,
      "ĠStudy": 6194,
      "ĠRepublic": 6195,
      "ĠFlor": 6196,
      "ĠWhat": 6197,
      "ructure": 6198,
      "ĠProtocol": 6199,
      "ransport": 6200,
      "Robert": 6201,
      "ĠLimited": 6202,
      "Ka": 6203,
      "Re": 6204,
      "Ram": 6205,
      "Raj": 6206,
      "Trans": 6207,
      "her": 6208,
      "hip": 6209,
      "nic": 6210,
      "ocial": 6211,
      "sa": 6212,
      "set": 6213,
      "uor": 6214,
      "vol": 6215,
      "vest": 6216,
      "yr": 6217,
      "Ñı": 6218,
      "Ø¨": 6219,
      "ÛĮ": 6220,
      "ãĥ": 6221,
      "Ġå": 6222,
      "Ġour": 6223,
      "Ġelect": 6224,
      "à®¤à®ļà®®": 6225,
      "à®ªà®©à®¤": 6226,
      "à®ªà®£à®¤": 6227,
      "à®³à®µà®©": 6228,
      "à®±à®¯": 6229,
      "à®±à®Ĭà®¤": 6230,
      "Ġà®®à®³": 6231,
      "à®¨à®Łà®©": 6232,
      "à®¨à®¯à®©": 6233,
      "à¯į.[": 6234,
      "à¯Ģà®¾à¯į": 6235,
      "Ġà®Ĵà®ĥà®ª": 6236,
      "à®¯à®²à®Ļ": 6237,
      "à®Łà®®à®³": 6238,
      "à®¯à®®à®¯à®®": 6239,
      "à®ķà®²à®µà®°à®Ļ": 6240,
      "à®¤à®°à®¨": 6241,
      "Ġà®ľà®¤": 6242,
      "à®ħà®ķà®¨": 6243,
      "à®²à®ķà®µà®¤": 6244,
      "Ġà®ªà®°à®²": 6245,
      "à®Łà®ķà®ļ": 6246,
      "iny": 6247,
      "inus": 6248,
      "includ": 6249,
      "à®°à®ªà®²à®Ļ": 6250,
      "alk": 6251,
      "aly": 6252,
      "alar": 6253,
      "Ġ380": 6254,
      "Ġ1829": 6255,
      "Ġà®ħà®ķà®²à®¤": 6256,
      "ĠSite": 6257,
      "ĠSyn": 6258,
      "ĠCultural": 6259,
      "ĠApr": 6260,
      "itch": 6261,
      "itive": 6262,
      "à®¯à®µà®´": 6263,
      "ĠTimes": 6264,
      "ĠMartin": 6265,
      "Ġ156": 6266,
      "oli": 6267,
      "olia": 6268,
      "ĠBank": 6269,
      "ila": 6270,
      "ili": 6271,
      "1777": 6272,
      "Ġ1776": 6273,
      "Ġ1798": 6274,
      "Ġ1761": 6275,
      "change": 6276,
      "ĠNot": 6277,
      "ĠNatural": 6278,
      "ĠDh": 6279,
      "1600": 6280,
      "ĠGl": 6281,
      "ĠGlobal": 6282,
      "rea": 6283,
      "rey": 6284,
      "usiness": 6285,
      "agam": 6286,
      "ĠFreedom": 6287,
      "à®Ĳà®®": 6288,
      "umar": 6289,
      "Ġcoll": 6290,
      "Ġborder": 6291,
      "ĠWil": 6292,
      "Ġà®·à®°": 6293,
      "à®Ĭà®´": 6294,
      "à®²à®¨à®±": 6295,
      "à®Īà®´": 6296,
      "irit": 6297,
      "ĠVal": 6298,
      "apore": 6299,
      "Ġ247": 6300,
      "Ġno": 6301,
      "anga": 6302,
      "Ġlist": 6303,
      "aiy": 6304,
      "Ġà®ªà®µà®³à®ķ": 6305,
      "ever": 6306,
      "235": 6307,
      "iforn": 6308,
      "allur": 6309,
      "quare": 6310,
      "Ġà®ķà®®à®²à®¹": 6311,
      "ateg": 6312,
      "Ġ×Ľ": 6313,
      "à´Ĥ": 6314,
      "Int": 6315,
      "mann": 6316,
      "à®ļà®¯à®¨à®ķà®°": 6317,
      "Ġ1804": 6318,
      "Ġprogram": 6319,
      "ĠColombo": 6320,
      "archive": 6321,
      "ĠSpace": 6322,
      "ledge": 6323,
      "ĠArtic": 6324,
      "ercury": 6325,
      "ĠCaliforn": 6326,
      "ĠWorks": 6327,
      "ĠLiber": 6328,
      "ĠSumer": 6329,
      "valanche": 6330,
      "Ġpublished": 6331,
      "rocod": 6332,
      "ĠJoseph": 6333,
      "Charles": 6334,
      "udoku": 6335,
      "Ġ×Ļ×": 6336,
      "ĠCalifornia": 6337,
      ".(": 6338,
      "320": 6339,
      "CB": 6340,
      "Ele": 6341,
      "FA": 6342,
      "Gl": 6343,
      "Great": 6344,
      "HP": 6345,
      "Linux": 6346,
      "NU": 6347,
      "Sk": 6348,
      "Tir": 6349,
      "Vol": 6350,
      "gar": 6351,
      "gress": 6352,
      "hm": 6353,
      "min": 6354,
      "map": 6355,
      "minist": 6356,
      "ng": 6357,
      "sup": 6358,
      "tn": 6359,
      "tar": 6360,
      "uary": 6361,
      "vers": 6362,
      "ych": 6363,
      "á¹": 6364,
      "Ĺ×": 6365,
      "à¯ģ]": 6366,
      "à®ķà®©à®°": 6367,
      "à®¤à®Łà®®": 6368,
      "à®°à®¯à®©": 6369,
      "à®²à®ļà®°à®¸": 6370,
      "à®²à®ļà®®à®¯à®Ļ": 6371,
      "à®©à®¤à®®": 6372,
      "à®¯à®ķà®²": 6373,
      "Ġà®ªà®ĥà®±": 6374,
      "à®ļà®ķà®©": 6375,
      "à®ļà®£à®Ļ": 6376,
      "à®ķà®³à®²": 6377,
      "à®¨à®ª": 6378,
      "Ġà®ħà®²à®®": 6379,
      "Ġà®ħà®µà®¨": 6380,
      "Ġà®ħà®ªà®ķ": 6381,
      "à¯ĭ?": 6382,
      "à®´à®µà®¨": 6383,
      "Ġ(;": 6384,
      "à®ķà®°à®£à®®": 6385,
      "à®ķà®®à®©": 6386,
      "à®ĩà®±à®ķ": 6387,
      "à®ĩà®¯à®¨": 6388,
      "à®¯à®¤à®³à®¤": 6389,
      "Ġà®ķà®²à®µà®©": 6390,
      "Ġà®īà®°à®¤": 6391,
      "Ġà®ľà®²à®¨": 6392,
      "à®ħà®µà®¤": 6393,
      "à®ħà®°à®µ": 6394,
      "à®®à®©à®ķ": 6395,
      "eri": 6396,
      "ino": 6397,
      "inem": 6398,
      "à®µà®¨à®²": 6399,
      "Ġà®ĵà®°à®®": 6400,
      "ared": 6401,
      "orph": 6402,
      "Ġà®Ĭà®©à®®": 6403,
      "Ġà®ļà®°à®£à®®": 6404,
      "1817": 6405,
      "1810": 6406,
      "1811": 6407,
      "1828": 6408,
      "1836": 6409,
      "isual": 6410,
      "à¯ĩ...": 6411,
      "à®°à®£à®µ": 6412,
      "ĠAst": 6413,
      "Ġà®īà®²à®ķà®¨": 6414,
      "itude": 6415,
      "ĠPet": 6416,
      "ĠPDF": 6417,
      "ĠMur": 6418,
      "asian": 6419,
      "Ġ153": 6420,
      "olis": 6421,
      "ĠBird": 6422,
      "ĠBrown": 6423,
      "à®Ĵà®ķ": 6424,
      "1700": 6425,
      "1790": 6426,
      "1793": 6427,
      "Ġ1795": 6428,
      "Ġ107": 6429,
      "à¯ģ);": 6430,
      "ĠIC": 6431,
      "ĠIU": 6432,
      "ĠNS": 6433,
      "Ġ162": 6434,
      "ĠLear": 6435,
      "ĠDan": 6436,
      "ĠDis": 6437,
      "Ġà®ĩà®®à®¯à®®": 6438,
      "ĠEr": 6439,
      "ĠEver": 6440,
      "Ġ127": 6441,
      "160": 6442,
      "à®¾...": 6443,
      "ides": 6444,
      "106": 6445,
      "à®ıà®¯": 6446,
      "Ġdel": 6447,
      "Ġdesc": 6448,
      "Ġ111": 6449,
      "ota": 6450,
      "Ġmore": 6451,
      "apac": 6452,
      "phen": 6453,
      "uble": 6454,
      "à®ĵà®¯": 6455,
      "ĠStar": 6456,
      "ova": 6457,
      "eva": 6458,
      "ocal": 6459,
      "Ġà®®à®£à®®à®ķ": 6460,
      "à®ªà®¯à®©à®°": 6461,
      "allery": 6462,
      "rank": 6463,
      "à®¾\",": 6464,
      "ternal": 6465,
      "ĠIndus": 6466,
      "à´ķ": 6467,
      "ains": 6468,
      "ĠThir": 6469,
      "ÂłÂłÂł": 6470,
      "iley": 6471,
      "Ġprocess": 6472,
      "ajor": 6473,
      "\"|<": 6474,
      "ĠShort": 6475,
      "Ġequ": 6476,
      "ĠCanadian": 6477,
      "ĠSciences": 6478,
      "ools": 6479,
      "Ġà®ķà®ľà®²à®Ł": 6480,
      "ĠIsra": 6481,
      "ĠScript": 6482,
      "ĠLibraries": 6483,
      "Ġà®¤à®ļà®®à®ª": 6484,
      "à®°à®ķà®Łà®©à®¤": 6485,
      "akkam": 6486,
      "Ã³n": 6487,
      "Ġà®ĩà®²à®µà®ļà®ª": 6488,
      "aterials": 6489,
      "ĠDepartment": 6490,
      "English": 6491,
      "ĠMovement": 6492,
      "ĠJuly": 6493,
      "ĠMesopot": 6494,
      "340": 6495,
      "Book": 6496,
      "Cent": 6497,
      "IM": 6498,
      "Par": 6499,
      "Sch": 6500,
      "TA": 6501,
      "da": 6502,
      "ez": 6503,
      "ique": 6504,
      "low": 6505,
      "mm": 6506,
      "mark": 6507,
      "num": 6508,
      "pire": 6509,
      "su": 6510,
      "test": 6511,
      "uff": 6512,
      "wan": 6513,
      "well": 6514,
      "|âĨĴ": 6515,
      "Äĵ": 6516,
      "Î·": 6517,
      "âĪ": 6518,
      "Ġel": 6519,
      "Ġover": 6520,
      "ĠĉĊ": 6521,
      "Ġecon": 6522,
      "à®¤à®¤à®²": 6523,
      "à®°à®ķà®ļ": 6524,
      "à®¾âĢĿ": 6525,
      "à®Łà®ļà®¨": 6526,
      "à®ªà®ķà®µà®²": 6527,
      "à®®à®²à®¤": 6528,
      "à®²à®µà®¤": 6529,
      "à®µà®ªà®ķ": 6530,
      "Ġà®ªà®¯à®¤": 6531,
      "à®ļà®µà®´à®®": 6532,
      "à®ķà®³à®ļ": 6533,
      "Ġà®®à®²à®®": 6534,
      "Ġà®¤à®°à®£": 6535,
      "Ġà®µà®ľ": 6536,
      "à¯ĩ(": 6537,
      "Ġà®¨à®¯à®®": 6538,
      "Ġà®¨à®²à®ķ": 6539,
      "à®ªà®Łà®°": 6540,
      "à®µà®°à®¤à®°": 6541,
      "Ġà®ĩà®°à®ļà®µ": 6542,
      "à®ķà®°à®¨": 6543,
      "Ġà®īà®³à®°": 6544,
      "Ġà®µà®°à®ļ": 6545,
      "Ġà®ıà®²à®¤": 6546,
      "à®µà®©à®ļ": 6547,
      "à®ħà®ķà®ļ": 6548,
      "Ġà®ļà®®à®¤à®°": 6549,
      "anam": 6550,
      "Ġà®¯à®©": 6551,
      "erland": 6552,
      "ĠĠĠĠĠĠĠĊ": 6553,
      "à®ķà®´à®²": 6554,
      "à®ļà®°à®Ļ": 6555,
      "Ġ\"\"": 6556,
      "à®¤à®µà®ļ": 6557,
      "ati": 6558,
      "Ġ330": 6559,
      "Ġ370": 6560,
      "Ġà®®à®°à®µà®³": 6561,
      "Ġ1842": 6562,
      "à¯į:-": 6563,
      "1838": 6564,
      "à®ķà®©à®©": 6565,
      "estern": 6566,
      "icode": 6567,
      "tha": 6568,
      "Ġ550": 6569,
      "ĠSil": 6570,
      "ĠSign": 6571,
      "ĠCar": 6572,
      "ĠCapital": 6573,
      "Ġà®ªà®¯à®£à®ķ": 6574,
      "à®ļà®²à®ªà®¤": 6575,
      "ĠText": 6576,
      "ĠTrav": 6577,
      "ĠTechn": 6578,
      "ĠPeople": 6579,
      "Ġà®ķà®©à®ļà®¤": 6580,
      "ĠĠĠĠĠĠĠĠĠĠĠĊ": 6581,
      "oman": 6582,
      "ĠMB": 6583,
      "ĠMill": 6584,
      "ĠMission": 6585,
      "uring": 6586,
      "Ġ''": 6587,
      "Ġ154": 6588,
      "1797": 6589,
      "Ġ1787": 6590,
      "Ġ1789": 6591,
      "Ġ1707": 6592,
      "Ġà®īà®¤à®Ł": 6593,
      "ĠIP": 6594,
      "ĠReal": 6595,
      "edic": 6596,
      "stant": 6597,
      "stract": 6598,
      "stein": 6599,
      "Ġà®ķà®´à®±": 6600,
      "ĠNav": 6601,
      "ĠLa": 6602,
      "rod": 6603,
      "Ġà®ĩà®®à®¯": 6604,
      "ĠEli": 6605,
      "ĠEastern": 6606,
      "eton": 6607,
      "Ġ121": 6608,
      "Ġ126": 6609,
      "reet": 6610,
      "ĠFA": 6611,
      "ĠpH": 6612,
      "Ġpeople": 6613,
      "à®Ĳà®Ł": 6614,
      "à®Ĳà®©": 6615,
      "à®Ĳà®¤à®°": 6616,
      "aden": 6617,
      "Ġfree": 6618,
      "Ġ1400": 6619,
      "Ġco": 6620,
      "idel": 6621,
      "ĠWest": 6622,
      "ĠWater": 6623,
      "ĠWash": 6624,
      "à¤£": 6625,
      "à¤¹": 6626,
      "Ġdr": 6627,
      "Ġapp": 6628,
      "Ġmon": 6629,
      "à·ħ": 6630,
      "aper": 6631,
      "à¶°": 6632,
      "ubercul": 6633,
      "acus": 6634,
      "Ġlife": 6635,
      "à¦¨": 6636,
      "Ġhand": 6637,
      "alls": 6638,
      "Ġstr": 6639,
      "mentary": 6640,
      "ebra": 6641,
      "ĠProfile": 6642,
      "ĠâĪ": 6643,
      "BCA": 6644,
      "BCB": 6645,
      "BCC": 6646,
      "à®¿',": 6647,
      "Ġrec": 6648,
      "Ġref": 6649,
      "Ann": 6650,
      "Ġà¤®": 6651,
      "hemical": 6652,
      "BBE": 6653,
      "BBF": 6654,
      "azh": 6655,
      "à®µà®ļà®®à®¯": 6656,
      "Ġchar": 6657,
      "ĠOrder": 6658,
      "hysical": 6659,
      "ittee": 6660,
      "outube": 6661,
      "Ġused": 6662,
      "ĠControl": 6663,
      "ĠPalest": 6664,
      "ÑĢÐ°": 6665,
      "rete": 6666,
      "ĠSpecial": 6667,
      "position": 6668,
      "ĠKrishnamurthy": 6669,
      "ĠCompany": 6670,
      ",\"": 6671,
      ".:": 6672,
      "360": 6673,
      "Ac": 6674,
      "Amer": 6675,
      "EM": 6676,
      "Met": 6677,
      "Pal": 6678,
      "Part": 6679,
      "Res": 6680,
      "Richard": 6681,
      "Sub": 6682,
      "TTE": 6683,
      "Web": 6684,
      "based": 6685,
      "burg": 6686,
      "cell": 6687,
      "day": 6688,
      "hindu": 6689,
      "ias": 6690,
      "ief": 6691,
      "mand": 6692,
      "pat": 6693,
      "rd": 6694,
      "sm": 6695,
      "ser": 6696,
      "tem": 6697,
      "uin": 6698,
      "world": 6699,
      "yo": 6700,
      "Ã§": 6701,
      "Î³": 6702,
      "Î¸": 6703,
      "Ùİ": 6704,
      "Ġart": 6705,
      "à®¿]": 6706,
      "à¯ģà¯į": 6707,
      "à®ķà®¤à®©": 6708,
      "à®²à®Łà®Ļ": 6709,
      "à®µà®Łà®¤": 6710,
      "Ġà®ķà®¤à®®": 6711,
      "Ġà®ķà®®à®°": 6712,
      "Ġà®®à®´à®²": 6713,
      "à®£à®¯à®µ": 6714,
      "Ġà®¤à®¯à®ķ": 6715,
      "Ġà®ļà®ĥà®ª": 6716,
      "Ġà®ħà®ĥà®ª": 6717,
      "à®´à®²à®®": 6718,
      "à®´à®µà®©": 6719,
      "Ġà®Ĩà®µà®¤à®±": 6720,
      "à¯Ĥ)": 6721,
      "Ġ((": 6722,
      "à®ķà®ªà®¤": 6723,
      "à®ķà®®à®°": 6724,
      "à®ķà®®à®³": 6725,
      "âĢī": 6726,
      "à®ĩà®Łà®µ": 6727,
      "à®¤à®¤à®¤": 6728,
      "à®ľà®°à®¤": 6729,
      "à®ķà®²à®¨": 6730,
      "Ġà®ķà®°à®ª": 6731,
      "à®ħà®±à®®": 6732,
      "à®£à®®à®Ł": 6733,
      "Ġà®ļà®®à®°à®ķ": 6734,
      "Ġà®ªà®°à®¸": 6735,
      "à®³à®µà®Ļ": 6736,
      "à®ķà®´à®µ": 6737,
      "Ġà®²à®®": 6738,
      "à®İà®©à®ª": 6739,
      "à®¤à®µà®´": 6740,
      "alle": 6741,
      "Ġ322": 6742,
      "Ġà®Īà®¯": 6743,
      "Ġ1811": 6744,
      "Ġ1821": 6745,
      "1842": 6746,
      "ici": 6747,
      "Ġà®¹à®ļ": 6748,
      "ĠSH": 6749,
      "ĠAk": 6750,
      "ĠAff": 6751,
      "ĠABCD": 6752,
      "ample": 6753,
      "ĠPark": 6754,
      "ĠMS": 6755,
      "ĠMil": 6756,
      "ĠMount": 6757,
      "asi": 6758,
      "Ġ1519": 6759,
      "Ġ1564": 6760,
      "Ġà®ķà®Łà®²à®Ł": 6761,
      "ĠBra": 6762,
      "iling": 6763,
      "heel": 6764,
      "à®ĩà®¤à®¯à®®": 6765,
      "Ġ1755": 6766,
      "ela": 6767,
      "entation": 6768,
      "Ġ202": 6769,
      "ĠNature": 6770,
      "ĠLove": 6771,
      "ĠDev": 6772,
      "ĠDiscover": 6773,
      "166": 6774,
      "ĠFin": 6775,
      "ĠFut": 6776,
      "ĠFull": 6777,
      "Ġpo": 6778,
      "Ġpar": 6779,
      "Ġ142": 6780,
      "Ġ146": 6781,
      "à®µà®ļà®ķ": 6782,
      "raction": 6783,
      "racy": 6784,
      "Ġsyn": 6785,
      "ĠWith": 6786,
      "Ġtra": 6787,
      "Ġdis": 6788,
      "Ġdef": 6789,
      "opy": 6790,
      "Ġaut": 6791,
      "Ġmov": 6792,
      "ĠĠĠĠĠĠĠĠĠĠĠĠĠĠĠĠĠĊ": 6793,
      "ĠKal": 6794,
      "irth": 6795,
      "ima": 6796,
      "ĠJr": 6797,
      "ĠVa": 6798,
      "à¶§": 6799,
      "acc": 6800,
      "acy": 6801,
      "iance": 6802,
      "Ġ2600": 6803,
      "ĠStan": 6804,
      "ĠStandard": 6805,
      "ĠChicago": 6806,
      "Ġhuman": 6807,
      "à®ªà®¯à®£à®Ļ": 6808,
      "Ġret": 6809,
      "ipedia": 6810,
      "obox": 6811,
      "Ġà®ĥà®ªà®°": 6812,
      "ĠÎ±": 6813,
      "ynast": 6814,
      "awa": 6815,
      "ĠExt": 6816,
      "à§Ģ": 6817,
      "United": 6818,
      "'')": 6819,
      "Ġmany": 6820,
      "Ġresearch": 6821,
      "ĠOffice": 6822,
      "poration": 6823,
      "ĠCentral": 6824,
      "blem": 6825,
      "pression": 6826,
      "ĠMagazine": 6827,
      "Ġmathemat": 6828,
      "wikitable": 6829,
      "ĠSmith": 6830,
      "Ġà®ķà®©à®°à®ķ": 6831,
      "echanics": 6832,
      "Ġunder": 6833,
      "ĠSingapore": 6834,
      "ĠTestament": 6835,
      "ĠPeriodic": 6836,
      "ĠBabylon": 6837,
      "erspective": 6838,
      "perties": 6839,
      "ibliography": 6840,
      "($": 6841,
      "+)": 6842,
      "Af": 6843,
      "Bh": 6844,
      "Car": 6845,
      "DC": 6846,
      "God": 6847,
      "Har": 6848,
      "ION": 6849,
      "Kar": 6850,
      "OM": 6851,
      "Pan": 6852,
      "Syn": 6853,
      "ault": 6854,
      "eel": 6855,
      "iber": 6856,
      "kal": 6857,
      "lat": 6858,
      "lad": 6859,
      "oa": 6860,
      "ough": 6861,
      "pa": 6862,
      "tion": 6863,
      "trans": 6864,
      "vel": 6865,
      "vail": 6866,
      "à³": 6867,
      "Ġæ": 6868,
      "Ġá¼": 6869,
      "Ġà®Ļ": 6870,
      "à®°à®³à®ķ": 6871,
      "à®®à®Łà®¤": 6872,
      "à®²à®±à®®": 6873,
      "à®©à®ķà®²": 6874,
      "à®³à®µà®¤": 6875,
      "Ġà®ªà®¯à®ķ": 6876,
      "à®ļà®¹": 6877,
      "à®ªà®Łà®²à®®": 6878,
      "Ġà®īà®ľ": 6879,
      "Ġà®īà®®à®ķ": 6880,
      "Ġà®İà®©à®ªà®¤": 6881,
      "Ġ(=": 6882,
      "à®ķà®°à®²": 6883,
      "âĢ²": 6884,
      "à®ĩà®´": 6885,
      "à®ĩà®±à®¨": 6886,
      "à®ĩà®²à®µ": 6887,
      "Ġà®īà®³à®¤": 6888,
      "à®ľà®Ļ": 6889,
      "Ġà®°à®£à®ļ": 6890,
      "Ġà®ªà®Łà®²à®Ļ": 6891,
      "à®ªà®°à®¸": 6892,
      "à®±à®©à®µà®±": 6893,
      "Ġà®ľà®¯à®°": 6894,
      "Ġà®ħà®²à®°": 6895,
      "Ġà®ļà®®à®±": 6896,
      "Ġà®ļà®®à®ªà®ķ": 6897,
      "erb": 6898,
      "Ġà®Ĳà®ļà®©": 6899,
      "Ġà®Ĳà®İà®®": 6900,
      "ona": 6901,
      "inci": 6902,
      "inary": 6903,
      "à®ļà®®à®¸": 6904,
      "à®ļà®®à®ªà®ķ": 6905,
      "Ġà®ĵà®·": 6906,
      "Ġà®ĵà®µà®²": 6907,
      "atalog": 6908,
      "à®ªà®ķà®Ł": 6909,
      "Ġà®Ĩà®°à®ķ": 6910,
      "oris": 6911,
      "Ġà®Ĭà®Łà®±": 6912,
      "Ġà®®à®°à®µ": 6913,
      "Ġà®®à®°à®ķà®¤à®®": 6914,
      "à®µà®²à®ļ": 6915,
      "Ġà®ķà®¤à®ķà®³": 6916,
      "Ġà®ªà®¯à®¸": 6917,
      "Ġ639": 6918,
      "Ġà®µà®²à®¯": 6919,
      "à®°à®£à®®à®²": 6920,
      "ĠTrad": 6921,
      "ĠTDI": 6922,
      "ĠPan": 6923,
      "ĠPur": 6924,
      "ĠPre": 6925,
      "ĠMap": 6926,
      "ĠMach": 6927,
      "ĠMethod": 6928,
      "ĠMercury": 6929,
      "Ġà®ļà®¤à®Ļ": 6930,
      "Ġ996": 6931,
      "ases": 6932,
      "1759": 6933,
      "à®ĩà®¤à®¯à®¤": 6934,
      "Ġ1780": 6935,
      "Ġ1781": 6936,
      "Ġ....": 6937,
      "Ġà®īà®¤à®¯à®ķ": 6938,
      "ĠRec": 6939,
      "Ġ204": 6940,
      "Ġ209": 6941,
      "Ġ124": 6942,
      "Ġ129": 6943,
      "ĠGov": 6944,
      "cto": 6945,
      "1521": 6946,
      "1564": 6947,
      "aga": 6948,
      "ĠFrench": 6949,
      "Ġpart": 6950,
      "ivu": 6951,
      "Ġ143": 6952,
      "unn": 6953,
      "Ġcor": 6954,
      "Ġ138": 6955,
      "Ġset": 6956,
      "Ġsign": 6957,
      "Ġsearch": 6958,
      "ids": 6959,
      "ĠWiley": 6960,
      "1492": 6961,
      "Ġdiffer": 6962,
      "otor": 6963,
      "otion": 6964,
      "à®Īà®¸": 6965,
      "osh": 6966,
      "rial": 6967,
      "ĠKhan": 6968,
      "ĠUp": 6969,
      "ĠUSA": 6970,
      "ĠJustice": 6971,
      "ĠJaffna": 6972,
      "Ġà®ªà®°à®®à®¤": 6973,
      "à¶¹": 6974,
      "à®©à®²à®Ł": 6975,
      "Ġà®¨à®Łà®©à®ª": 6976,
      "aith": 6977,
      "lip": 6978,
      "Ġforce": 6979,
      "Ġvon": 6980,
      "romagnetic": 6981,
      "atha": 6982,
      "ebru": 6983,
      "à¯įâĢĻ,": 6984,
      "upp": 6985,
      "obile": 6986,
      "iki": 6987,
      "ensis": 6988,
      "spot": 6989,
      "1802": 6990,
      "Ġà®ĥà®ķ": 6991,
      "Ġ1807": 6992,
      "annica": 6993,
      "plete": 6994,
      "ĠGeorge": 6995,
      "ictor": 6996,
      "isease": 6997,
      "elected": 6998,
      "ĠInteg": 6999,
      "ocuments": 7000,
      "oftware": 7001,
      "AMIL": 7002,
      "ĠEconomic": 7003,
      "Ġbiography": 7004,
      "iddle": 7005,
      "ĠCommittee": 7006,
      "ĠHeritage": 7007,
      "ĠCommunity": 7008,
      "ynamics": 7009,
      "ĠChemistry": 7010,
      "ĠPolitical": 7011,
      "inhala": 7012,
      "Ġlinks": 7013,
      "blogspot": 7014,
      "iformes": 7015,
      "Microsoft": 7016,
      "ablished": 7017,
      "uberculosis": 7018,
      "ebruary": 7019,
      "!!": 7020,
      "CS": 7021,
      "HO": 7022,
      "James": 7023,
      "Mah": 7024,
      "ND": 7025,
      "OC": 7026,
      "PR": 7027,
      "Po": 7028,
      "VD": 7029,
      "])": 7030,
      "aud": 7031,
      "can": 7032,
      "east": 7033,
      "face": 7034,
      "gon": 7035,
      "log": 7036,
      "less": 7037,
      "long": 7038,
      "ought": 7039,
      "pop": 7040,
      "rus": 7041,
      "rical": 7042,
      "ratic": 7043,
      "sw": 7044,
      "sen": 7045,
      "time": 7046,
      "uf": 7047,
      "year": 7048,
      "zt": 7049,
      "Ġà¯": 7050,
      "Ġext": 7051,
      "à®Ķ": 7052,
      "à¯ģ|-": 7053,
      "à®ķà®ľà®©": 7054,
      "à®¾à®¾à¯į": 7055,
      "à®Łà®¹": 7056,
      "à®ªà®ķà®°à®®": 7057,
      "à®®à®ķà®¤": 7058,
      "à®²à®¯à®©": 7059,
      "à¯Ī?": 7060,
      "Ġà®ªà®¯à®ª": 7061,
      "Ġà®ķà®¯à®²": 7062,
      "Ġà®ķà®®à®ķ": 7063,
      "Ġà®®à®®à®¤": 7064,
      "à®£à®¸": 7065,
      "à®¨à®²à®¤": 7066,
      "Ġà®¤à®¸": 7067,
      "à¯ĩ|-": 7068,
      "Ġà®ħà®ľà®°": 7069,
      "à¯ĭ(": 7070,
      "à®µà®°à®ļà®©": 7071,
      "Ġà®Ĵà®ĥà®µ": 7072,
      "Ġà®ĩà®¤à®®": 7073,
      "à®¿.,": 7074,
      "à®ľà®¤à®¨": 7075,
      "Ġà®°à®ķà®Ļ": 7076,
      "à®ªà®°à®ļà®°": 7077,
      "Ġà®īà®°à®²": 7078,
      "Ġà®ľà®Ļ": 7079,
      "Ġà®ħà®±à®µà®´": 7080,
      "à®ħà®ķà®ª": 7081,
      "à®ħà®ķà®®": 7082,
      "à®ħà®¯à®°": 7083,
      "Ġà®Łà®¯à®°": 7084,
      "à®·à®ªà®ª": 7085,
      "Ġà®ħà®©à®ķ": 7086,
      "Ġà®¤à®©à®®": 7087,
      "Ġà®ªà®¯à®©à®Ł": 7088,
      "à®ļà®®à®¨": 7089,
      "alur": 7090,
      "Ġ375": 7091,
      "Ġà®Ĭà®µ": 7092,
      "Ġà®Īà®¨": 7093,
      "Ġà®Īà®¯à®®": 7094,
      "Ġà®Īà®¤à®°": 7095,
      "Ġ1817": 7096,
      "1823": 7097,
      "Ġà®Ĩà®Łà®µà®°": 7098,
      "this": 7099,
      "à¯ĩ.\"": 7100,
      "Ġà®¸à®°": 7101,
      "ĠSer": 7102,
      "ĠSol": 7103,
      "ĠSir": 7104,
      "Ġà®¤à®°à®µà®²": 7105,
      "ĠTeach": 7106,
      "ĠMin": 7107,
      "ĠMarch": 7108,
      "ĠMaps": 7109,
      "anding": 7110,
      "ĠBudd": 7111,
      "à®Ĵà®Ļ": 7112,
      "à®ĩà®²à®Ł": 7113,
      "1760": 7114,
      "1770": 7115,
      "1781": 7116,
      "Ġà®µà®³à®¨": 7117,
      "heim": 7118,
      "Ġ176": 7119,
      "Ġ1758": 7120,
      "Ġ1791": 7121,
      "ĠIr": 7122,
      "stan": 7123,
      "Ġtheir": 7124,
      "Ġ166": 7125,
      "Ġ167": 7126,
      "Ġ169": 7127,
      "ĠList": 7128,
      "ĠLight": 7129,
      "ĠLTTE": 7130,
      "road": 7131,
      "rogen": 7132,
      "ĠHon": 7133,
      "1649": 7134,
      "ĠGosp": 7135,
      "reh": 7136,
      "ĠFore": 7137,
      "Ġpopulation": 7138,
      "à®¯à®ļà®ķ": 7139,
      "Ġcal": 7140,
      "Ġ136": 7141,
      "Ġback": 7142,
      "102": 7143,
      "ĠOpt": 7144,
      "à®ķà®¨à®¨": 7145,
      "Ġ03": 7146,
      "Ġ04": 7147,
      "Ġ255": 7148,
      "Ġ258": 7149,
      "rian": 7150,
      "133": 7151,
      "ĠKh": 7152,
      "odes": 7153,
      "ĠVen": 7154,
      "ĠVideo": 7155,
      "à¶¢": 7156,
      "à¶ľ": 7157,
      "à¯ģ\")": 7158,
      "ache": 7159,
      "acing": 7160,
      "Ġne": 7161,
      "Ġ260": 7162,
      "akes": 7163,
      "exic": 7164,
      "eller": 7165,
      "ellow": 7166,
      "inda": 7167,
      "perial": 7168,
      "ensus": 7169,
      "ĠĠĠĠĠĠĠĠĠĠĠĠĠ": 7170,
      "ĠĠĠĠĠĠĠĠĠĠĠĠĠĠ": 7171,
      "à®¾?\"": 7172,
      "eek": 7173,
      "erview": 7174,
      "aceae": 7175,
      "aily": 7176,
      "ĠEdition": 7177,
      "All": 7178,
      "à¤¾à¤Ĥ": 7179,
      "ropical": 7180,
      "ĠManagement": 7181,
      "ĠAmp": 7182,
      "ference": 7183,
      "etween": 7184,
      "ĠLeon": 7185,
      "ĠFrank": 7186,
      "George": 7187,
      "ĠMathematical": 7188,
      "ĠCorporation": 7189,
      "Ġspecies": 7190,
      "Ġacid": 7191,
      "Ġinterview": 7192,
      "Ġformat": 7193,
      "ĠAccount": 7194,
      "ĠCriticism": 7195,
      "ÏĮÏĤ": 7196,
      "ĠOrganization": 7197,
      "vironmental": 7198,
      "ependent": 7199,
      "oscow": 7200,
      "ĠCongress": 7201,
      "ĠLiberation": 7202,
      "rocodyl": 7203,
      "ĠMesopotamia": 7204,
      "ĠWashington": 7205,
      "American": 7206,
      "ĠForeign": 7207,
      "116": 7208,
      "230": 7209,
      "330": 7210,
      "450": 7211,
      "550": 7212,
      "Ag": 7213,
      "GDP": 7214,
      "Is": 7215,
      "Mel": 7216,
      "NC": 7217,
      "PDF": 7218,
      "RS": 7219,
      "Sal": 7220,
      "Spe": 7221,
      "aim": 7222,
      "ced": 7223,
      "crete": 7224,
      "db": 7225,
      "eo": 7226,
      "equ": 7227,
      "eff": 7228,
      "go": 7229,
      "gu": 7230,
      "gor": 7231,
      "ios": 7232,
      "mp": 7233,
      "mad": 7234,
      "mission": 7235,
      "maker": 7236,
      "oice": 7237,
      "pen": 7238,
      "rin": 7239,
      "rint": 7240,
      "she": 7241,
      "table": 7242,
      "wa": 7243,
      "yper": 7244,
      "ycl": 7245,
      "Âµ": 7246,
      "Ñĥ": 7247,
      "Ġu": 7248,
      "à®¤à®ļà®°à®ļ": 7249,
      "à®¾à®¾à¯į.": 7250,
      "à®®à®ķà®®": 7251,
      "à®®à®¤à®°": 7252,
      "à®¯à®³à®°": 7253,
      "à®¯à®ķà®°à®®": 7254,
      "à®µà®²à®Ļ": 7255,
      "à®µà®£à®¤": 7256,
      "Ġà®ķà®¯à®¤": 7257,
      "à®ļà®¯à®ª": 7258,
      "Ġà®®à®ķà®µ": 7259,
      "à®£à®Ł": 7260,
      "à®£à®µà®ª": 7261,
      "à®¨à®µà®ķ": 7262,
      "Ġà®ĩà®²à®®": 7263,
      "Ġà®ĩà®·": 7264,
      "Ġà®ļà®²à®Ļ": 7265,
      "Ġà®¨à®µà®¤": 7266,
      "à®ªà®Łà®µà®°": 7267,
      "Ġà®İà®ľà®®": 7268,
      "à®¸à®¸": 7269,
      "à®ĩà®Łà®ª": 7270,
      "à®¯à®°à®Ł": 7271,
      "à®ķà®µà®´": 7272,
      "à®ľà®¨": 7273,
      "Ġà®ıà®Łà®©": 7274,
      "Ġà®°à®Ł": 7275,
      "Ġà®ªà®Łà®ļ": 7276,
      "Ġà®ªà®²à®µà®¨": 7277,
      "Ġà®®à®ķà®ļ": 7278,
      "Ġà®®à®ķà®¤à®²": 7279,
      "à®¤à®°à®ķà®¤": 7280,
      "à®ªà®°à®°": 7281,
      "à®ħà®²à®Ļ": 7282,
      "Ġà®Łà®²": 7283,
      "à®·à®Ł": 7284,
      "à®·à®©à®°": 7285,
      "Ġà®Ĳà®µ": 7286,
      "Ġà®²à®ª": 7287,
      "à®ļà®®à®£à®®": 7288,
      "à®İà®µà®°": 7289,
      "Ġà®ĵà®©": 7290,
      "Ġà®ĵà®Łà®®": 7291,
      "Ġà®ĵà®ªà®©": 7292,
      "Ġà®īà®£à®°à®²": 7293,
      "athe": 7294,
      "Ġ320": 7295,
      "à®ªà®ķà®µà®¤": 7296,
      "Ġ1823": 7297,
      "Ġ1828": 7298,
      "ester": 7299,
      "à®®à®¤à®Ļ": 7300,
      "à®ªà®®à®¯à®®": 7301,
      "ĠSudoku": 7302,
      "ĠCre": 7303,
      "ĠCrow": 7304,
      "ĠAvalanche": 7305,
      "itat": 7306,
      "Ġà®µà®²à®ļ": 7307,
      "Ġà®µà®²à®ŀ": 7308,
      "à®ķà®ļà®ķ": 7309,
      "ĠTir": 7310,
      "ĠPoint": 7311,
      "Ġà®ªà®´à®ļ": 7312,
      "à®±à®µà®´": 7313,
      "ĠMind": 7314,
      "uru": 7315,
      "asm": 7316,
      "Ġ155": 7317,
      "Ġ1565": 7318,
      "ĠBen": 7319,
      "ĠBur": 7320,
      "ĠBang": 7321,
      "1757": 7322,
      "Ġ1797": 7323,
      "Ġ1070": 7324,
      "ĠIV": 7325,
      "elli": 7326,
      "ĠNott": 7327,
      "Ġ1619": 7328,
      "Ġ1660": 7329,
      "ĠLive": 7330,
      "ĠLanguages": 7331,
      "ĠDom": 7332,
      "ĠGood": 7333,
      "à®¤à®±à®Ł": 7334,
      "1500": 7335,
      "1556": 7336,
      "1582": 7337,
      "ĠFre": 7338,
      "ĠFebruary": 7339,
      "Ġfact": 7340,
      "Ġcase": 7341,
      "rap": 7342,
      "Ġ132": 7343,
      "Ġshe": 7344,
      "Ġsch": 7345,
      "Ġbut": 7346,
      "ĠOF": 7347,
      "Ġtime": 7348,
      "empor": 7349,
      "ulam": 7350,
      "à¤¶": 7351,
      "Ġda": 7352,
      "Ġact": 7353,
      "Ġ02": 7354,
      "otal": 7355,
      "Ġmultip": 7356,
      "à·ģ": 7357,
      "130": 7358,
      "ĠKn": 7359,
      "ĠKam": 7360,
      "ĠJack": 7361,
      "apers": 7362,
      "abar": 7363,
      "uda": 7364,
      "Ġnon": 7365,
      "à¦¦": 7366,
      "ĠChinese": 7367,
      "even": 7368,
      "Ġher": 7369,
      "ĠUnity": 7370,
      "athur": 7371,
      "ĠAnalysis": 7372,
      "Ġà®Ĳà®¤à®°à®ļ": 7373,
      "rice": 7374,
      "aste": 7375,
      "ĠEnd": 7376,
      "ordin": 7377,
      "ika": 7378,
      "Ġà®ħà®µà®ļà®°à®®": 7379,
      "ainst": 7380,
      "Ġrev": 7381,
      "eaut": 7382,
      "à®®à®°à®ªà®£": 7383,
      "ĠComputer": 7384,
      "Ġ1806": 7385,
      "ounter": 7386,
      "erve": 7387,
      "Ġà¤ķ": 7388,
      "enguin": 7389,
      "reek": 7390,
      "stitution": 7391,
      "Ð¾Ð²": 7392,
      "article": 7393,
      "Ġimages": 7394,
      "airs": 7395,
      "argin": 7396,
      "Ġà®ķà®³à®µà®´": 7397,
      "ĠFrancis": 7398,
      "nowledge": 7399,
      "ĠMongols": 7400,
      "ĠChristian": 7401,
      "aption": 7402,
      "Ġaccount": 7403,
      "ĠSky": 7404,
      "olitan": 7405,
      "ocumentary": 7406,
      "ĠFederation": 7407,
      "Ġà®ļà®°à®µà®£à®ª": 7408,
      "MCMLXX": 7409,
      "ĠMinistry": 7410,
      "ĠDarwin": 7411,
      "611001": 7412,
      "ĠApril": 7413,
      "ĠArticle": 7414,
      "ĠLearning": 7415,
      "ctober": 7416,
      "%.": 7417,
      "240": 7418,
      "750": 7419,
      "At": 7420,
      "BP": 7421,
      "Ber": 7422,
      "Dh": 7423,
      "Ec": 7424,
      "Ep": 7425,
      "Eur": 7426,
      "GA": 7427,
      "Kh": 7428,
      "LO": 7429,
      "MM": 7430,
      "North": 7431,
      "PC": 7432,
      "Point": 7433,
      "bor": 7434,
      "bability": 7435,
      "cle": 7436,
      "do": 7437,
      "dent": 7438,
      "ei": 7439,
      "ful": 7440,
      "lk": 7441,
      "lim": 7442,
      "nes": 7443,
      "po": 7444,
      "tti": 7445,
      "wamy": 7446,
      "ËĪ": 7447,
      "Ïī": 7448,
      "Ð±": 7449,
      "ØŃ": 7450,
      "Ġà´": 7451,
      "Ġadd": 7452,
      "à®ķà®¯à®®": 7453,
      "à®Łà®°à®®": 7454,
      "à®ªà®±à®ķ": 7455,
      "à®³à®ķà®®": 7456,
      "à®³à®µà®Ł": 7457,
      "à®ļà®¯à®ķ": 7458,
      "à®ļà®¤à®µ": 7459,
      "à®ļà®µà®Ļ": 7460,
      "Ġà®®à®²à®Ļ": 7461,
      "à®£à®£": 7462,
      "à¯ĭ!": 7463,
      "Ġà®¨à®©à®µ": 7464,
      "Ġà®İà®µà®±": 7465,
      "Ġà®İà®®à®¤": 7466,
      "à¯Ĥà®¾à¯į": 7467,
      "à¯į,(": 7468,
      "Ġ(âĪĴ": 7469,
      "Ġà®ĩà®°à®¤à®Ļ": 7470,
      "à®Łà®¤à®¤": 7471,
      "à®ªà®¤à®Ļ": 7472,
      "Ġà®®à®±à®µ": 7473,
      "à®°à®®à®²": 7474,
      "à®°à®®à®µ": 7475,
      "à®°à®®à®¯à®®": 7476,
      "Ġà®Ĩà®ķà®²": 7477,
      "Ġà®ħà®°à®µà®£": 7478,
      "Ġà®ıà®µà®²": 7479,
      "Ġà®°à®ļà®®": 7480,
      "à®ķà®²à®µà®°à®¤": 7481,
      "à®ªà®°à®²": 7482,
      "Ġà®ħà®Łà®²": 7483,
      "Ġà®ľà®¹": 7484,
      "à®ħà®©à®²": 7485,
      "Ġà®¯à®®à®©": 7486,
      "à®·à®¯": 7487,
      "Ġà®Ĳà®¯à®¤": 7488,
      "oning": 7489,
      "onia": 7490,
      "à®°à®ªà®²à®ª": 7491,
      "Ġà®ĵà®¹": 7492,
      "atics": 7493,
      "arc": 7494,
      "aris": 7495,
      "à¯Ī.)": 7496,
      "Ġà®Ĭà®ķà®Ļ": 7497,
      "Ġà®ļà®°à®µà®£": 7498,
      "Ġ184": 7499,
      "à®īà®³à®µ": 7500,
      "à®īà®¤à®¯": 7501,
      "esk": 7502,
      "Ġà®®à®²à®Ł": 7503,
      "Ġ420": 7504,
      "à®®à®°à®µ": 7505,
      "à®°à®£à®ķ": 7506,
      "ĠSi": 7507,
      "ĠCr": 7508,
      "Ġà®ªà®¯à®ļ": 7509,
      "ĠAut": 7510,
      "ĠAir": 7511,
      "itÃ©": 7512,
      "à®ķà®ļà®ª": 7513,
      "ĠTV": 7514,
      "ĠPopular": 7515,
      "Ġà®¤à®Łà®¯à®Ļ": 7516,
      "ĠMu": 7517,
      "ĠMer": 7518,
      "ĠMIT": 7519,
      "asma": 7520,
      "Ġ1530": 7521,
      "ĠBay": 7522,
      "ĠBose": 7523,
      "ĠBible": 7524,
      "1750": 7525,
      "1784": 7526,
      "Ġ172": 7527,
      "Ġ1770": 7528,
      "Ġ1736": 7529,
      "Ġ1764": 7530,
      "Ġ1782": 7531,
      "Ġà®ĵà®°à®²à®ķ": 7532,
      "Ġà®īà®¤à®¯à®¤": 7533,
      "Ġà®Ĩà®²à®ļà®©": 7534,
      "Ġ2050": 7535,
      "Ġ=>": 7536,
      "cha": 7537,
      "ĠNuclear": 7538,
      "Ġ164": 7539,
      "ros": 7540,
      "ĠDDT": 7541,
      "ĠDemoc": 7542,
      "eta": 7543,
      "etail": 7544,
      "ĠHistorical": 7545,
      "à®ľà®©à®ķà®°": 7546,
      "agle": 7547,
      "Ġà®ľà®©à®ķà®°": 7548,
      "ado": 7549,
      "ump": 7550,
      "umer": 7551,
      "iven": 7552,
      "Ġ147": 7553,
      "Ġcre": 7554,
      "Ġsec": 7555,
      "Ġsome": 7556,
      "Ġseries": 7557,
      "Ġbirth": 7558,
      "105": 7559,
      "109": 7560,
      "ĠOb": 7561,
      "Ġter": 7562,
      "Ġtitle": 7563,
      "iac": 7564,
      "utenberg": 7565,
      "à¤ľ": 7566,
      "opic": 7567,
      "Ġ07": 7568,
      "ersion": 7569,
      "à·Ĥ": 7570,
      "à®Īà®ª": 7571,
      "136": 7572,
      "ĠKan": 7573,
      "irl": 7574,
      "image": 7575,
      "Ġ304": 7576,
      "ĠJune": 7577,
      "ĠVideos": 7578,
      "à¶¶": 7579,
      "à¶·": 7580,
      "phab": 7581,
      "ubs": 7582,
      "à®¯à®£à®ķà®µ": 7583,
      "Ġ265": 7584,
      "aksh": 7585,
      "Ġà®ªà®µà®³à®ª": 7586,
      "à¦¸": 7587,
      "à¦ķ": 7588,
      "---": 7589,
      "Ġhas": 7590,
      "ĠUnder": 7591,
      "ified": 7592,
      "ella": 7593,
      "athy": 7594,
      "ĠAnn": 7595,
      "asts": 7596,
      "ĠProf": 7597,
      "Ġà®ļà®®à®°à®ļà®®": 7598,
      "illion": 7599,
      "plication": 7600,
      "Ġ1503": 7601,
      "1808": 7602,
      "pres": 7603,
      "annel": 7604,
      "anning": 7605,
      "board": 7606,
      "Str": 7607,
      "ĠGeometry": 7608,
      "ictures": 7609,
      "ators": 7610,
      "ĠPlay": 7611,
      "à®ļà®¯à®®à®±": 7612,
      "Art": 7613,
      "ĠResources": 7614,
      "ĠIslam": 7615,
      "Î¿Î½": 7616,
      "Î¿ÏĤ": 7617,
      "Ġà¦®": 7618,
      "Ġshort": 7619,
      "gency": 7620,
      "ĠSouthern": 7621,
      "ĠSystems": 7622,
      "keep": 7623,
      "foot": 7624,
      "Ġarticles": 7625,
      "ĠEmpire": 7626,
      "color": 7627,
      "Ġà®ļà®¹à®¸": 7628,
      "ĠKingdom": 7629,
      "PPP": 7630,
      "ersonal": 7631,
      "Ġguide": 7632,
      "Ġmatrix": 7633,
      "ariable": 7634,
      "ĠEuropean": 7635,
      "ĠPolitics": 7636,
      "finite": 7637,
      "Ġà®¤à®ļà®°à®¤à®©": 7638,
      "arrier": 7639,
      "General": 7640,
      "uilding": 7641,
      "vailable": 7642,
      "rocodylus": 7643,
      "ĠNottingham": 7644,
      "%-": 7645,
      "%).": 7646,
      ")}": 7647,
      ".),": 7648,
      "1200": 7649,
      "350": 7650,
      "990": 7651,
      "></": 7652,
      "?\"": 7653,
      "BO": 7654,
      "Bi": 7655,
      "CT": 7656,
      "Cer": 7657,
      "Cong": 7658,
      "Er": 7659,
      "Eth": 7660,
      "Fe": 7661,
      "GS": 7662,
      "He": 7663,
      "Land": 7664,
      "List": 7665,
      "MB": 7666,
      "Port": 7667,
      "RE": 7668,
      "Si": 7669,
      "Sem": 7670,
      "TAMIL": 7671,
      "[[": 7672,
      "bat": 7673,
      "bil": 7674,
      "bul": 7675,
      "dr": 7676,
      "dis": 7677,
      "file": 7678,
      "function": 7679,
      "gn": 7680,
      "gal": 7681,
      "gcolor": 7682,
      "hood": 7683,
      "kg": 7684,
      "lab": 7685,
      "med": 7686,
      "mary": 7687,
      "nect": 7688,
      "post": 7689,
      "si": 7690,
      "sl": 7691,
      "sem": 7692,
      "uy": 7693,
      "za": 7694,
      "},": 7695,
      "¨×": 7696,
      "Å«": 7697,
      "Ġ_": 7698,
      "ĠÙħ": 7699,
      "à¯ģ+": 7700,
      "à®¤à®ļà®Ļ": 7701,
      "à®°à®´à®ķ": 7702,
      "à®°à®³à®ª": 7703,
      "à®Łà®µà®¤": 7704,
      "à®Łà®£à®©": 7705,
      "à®ªà®ķà®µ": 7706,
      "à®®à®Łà®ķ": 7707,
      "à®²à®±à®¤": 7708,
      "à®²à®µà®²": 7709,
      "à®¯à®¤à®²": 7710,
      "à®¯à®µà®²": 7711,
      "à®¯à®µà®ķ": 7712,
      "à®³à®¯": 7713,
      "à®µà®ľ": 7714,
      "à®µà®³à®Ļ": 7715,
      "à®µà®ļà®©à®®": 7716,
      "à®ļà®ķà®Ł": 7717,
      "Ġà®®à®Łà®ª": 7718,
      "à®¨à®®à®¤": 7719,
      "Ġà®ĩà®¯à®®": 7720,
      "Ġà®¨à®¯à®©": 7721,
      "Ġà®¨à®²à®Ļ": 7722,
      "à¯į.:": 7723,
      "à®ķà®®à®Ļ": 7724,
      "Ġà®ħà®®à®°à®¤": 7725,
      "Ġà®ħà®®à®°à®ļ": 7726,
      "à®ĩà®µà®©à®¤": 7727,
      "Ġà®ħà®°à®Ł": 7728,
      "à®Łà®©à®Ļ": 7729,
      "à®²à®¤à®®": 7730,
      "Ġ215": 7731,
      "Ġà®¨à®Łà®µ": 7732,
      "à®ľà®¯à®®à®Ļ": 7733,
      "à®¯à®©à®©": 7734,
      "Ġà®ıà®ķà®²": 7735,
      "à®ªà®°à®¤à®¨": 7736,
      "à®ħà®Łà®°": 7737,
      "à®ħà®©à®¨": 7738,
      "à®Ĩà®²à®Ļ": 7739,
      "à®Ĩà®°à®£": 7740,
      "à®²à®ķà®ļ": 7741,
      "Ġà®ªà®°à®£à®°": 7742,
      "à®ķà®´à®Ł": 7743,
      "onic": 7744,
      "inson": 7745,
      "à®İà®±": 7746,
      "alth": 7747,
      "atur": 7748,
      "area": 7749,
      "à®µà®²à®ŀ": 7750,
      "Ġ440": 7751,
      "ĠSun": 7752,
      "ĠSpr": 7753,
      "ĠSurvey": 7754,
      "ĠAU": 7755,
      "ĠAugust": 7756,
      "à®¹à®°à®©": 7757,
      "ĠTok": 7758,
      "ĠMo": 7759,
      "ĠMoscow": 7760,
      "Ġ950": 7761,
      "aspor": 7762,
      "olk": 7763,
      "ĠBack": 7764,
      "ĠBoy": 7765,
      "ĠBridge": 7766,
      "1765": 7767,
      "1767": 7768,
      "1761": 7769,
      "Ġ177": 7770,
      "Ġ1749": 7771,
      "Ġ1767": 7772,
      "Ġ1793": 7773,
      "Ġthan": 7774,
      "ĠIN": 7775,
      "ingdom": 7776,
      "ĠRain": 7777,
      "edd": 7778,
      "style": 7779,
      "struct": 7780,
      "Ġ1610": 7781,
      "Ġ1623": 7782,
      "ĠLat": 7783,
      "ĠLet": 7784,
      "ĠLog": 7785,
      "ĠLong": 7786,
      "ĠDynast": 7787,
      "Ġà®ĩà®®à®¯à®¤": 7788,
      "etch": 7789,
      "ĠHind": 7790,
      "ĠHome": 7791,
      "ĠHDL": 7792,
      "Ġ1250": 7793,
      "à®¨à®Łà®¨": 7794,
      "1620": 7795,
      "1660": 7796,
      "1648": 7797,
      "ĠGandhi": 7798,
      "ague": 7799,
      "agazine": 7800,
      "ĠFood": 7801,
      "Ġport": 7802,
      "adai": 7803,
      "ivan": 7804,
      "Ġfound": 7805,
      "unus": 7806,
      "Ġà®ħà®³à®µà®±": 7807,
      "à®²à®µà®°à®®": 7808,
      "Ġcirc": 7809,
      "Ġ131": 7810,
      "Ġserv": 7811,
      "igence": 7812,
      "127": 7813,
      "ister": 7814,
      "ĠWat": 7815,
      "ĠOf": 7816,
      "Ġterm": 7817,
      "Ġtwo": 7818,
      "Ġdisc": 7819,
      "Ġdesign": 7820,
      "Ġ09": 7821,
      "otter": 7822,
      "Ġmusic": 7823,
      "à·Ĩ": 7824,
      "à®Īà®²": 7825,
      "à®Īà®ļ": 7826,
      "rie": 7827,
      "rief": 7828,
      "ĠKong": 7829,
      "ĠUran": 7830,
      "Ġà®ĥà®ªà®µ": 7831,
      "à¶¡": 7832,
      "à¶£": 7833,
      "à¶¤": 7834,
      "à¶¥": 7835,
      "à¶¨": 7836,
      "à¶³": 7837,
      "à¶µ": 7838,
      "à¶Ľ": 7839,
      "à¶Ŀ": 7840,
      "à¶ŀ": 7841,
      "à¶Ł": 7842,
      "à¶ł": 7843,
      "Ġà®®à®´à®µà®°": 7844,
      "à®ħà®°à®ļà®©": 7845,
      "Ġ222": 7846,
      "ewish": 7847,
      "Ġnational": 7848,
      "anger": 7849,
      "Ġlong": 7850,
      "Ġ1008": 7851,
      "Ġ274": 7852,
      "à¦¯": 7853,
      "Ġonly": 7854,
      "Ġgroup": 7855,
      "Ġvar": 7856,
      "ĠArama": 7857,
      "Ġ356": 7858,
      "india": 7859,
      "ugg": 7860,
      "ryst": 7861,
      "à¥ĭ": 7862,
      "perim": 7863,
      "à´µ": 7864,
      "aining": 7865,
      "Inf": 7866,
      "Ġ381": 7867,
      "rama": 7868,
      "Ġ1802": 7869,
      "ĠÎ²": 7870,
      "Ġproduct": 7871,
      "Anth": 7872,
      "Ġà®¤à®µà®®à®£": 7873,
      "ĠExplor": 7874,
      "ĠEngine": 7875,
      "ĠPhil": 7876,
      "skrit": 7877,
      "Unity": 7878,
      "ĠMarc": 7879,
      "ische": 7880,
      "Ġship": 7881,
      "opher": 7882,
      "Ġsystems": 7883,
      "ribution": 7884,
      "ildren": 7885,
      "à¦¾à¦Ĥ": 7886,
      "Ø§Ø": 7887,
      "ĠÂ£": 7888,
      "ĠÂ±": 7889,
      "ĠLiberty": 7890,
      "ÑģÑĤ": 7891,
      "ĠMedic": 7892,
      "ĠPrinc": 7893,
      "ĠRaman": 7894,
      "ĠBerlin": 7895,
      "region": 7896,
      "Ġworks": 7897,
      "ĠElements": 7898,
      "ĠReference": 7899,
      "Ġelement": 7900,
      "ĠTelephone": 7901,
      "eptember": 7902,
      "Ġgeography": 7903,
      "ĠEvolution": 7904,
      "Office": 7905,
      "irectory": 7906,
      "ĠReligion": 7907,
      "ocarpus": 7908,
      "à®¨à®¯à®©à®¨à®ļ": 7909,
      "inema": 7910,
      "ĠAstron": 7911,
      "ĠIsrael": 7912,
      "ztec": 7913,
      "aspora": 7914,
      "ĠAramaic": 7915,
      "+,": 7916,
      "220": 7917,
      "325": 7918,
      "==": 7919,
      "Arab": 7920,
      "Bar": 7921,
      "CP": 7922,
      "Che": 7923,
      "Cell": 7924,
      "DS": 7925,
      "Hen": 7926,
      "History": 7927,
      "Human": 7928,
      "Jul": 7929,
      "KS": 7930,
      "Kn": 7931,
      "Lake": 7932,
      "Ma": 7933,
      "Mic": 7934,
      "Sm": 7935,
      "System": 7936,
      "aus": 7937,
      "aude": 7938,
      "cm": 7939,
      "cit": 7940,
      "cre": 7941,
      "def": 7942,
      "ek": 7943,
      "gr": 7944,
      "gmail": 7945,
      "gebra": 7946,
      "jug": 7947,
      "knot": 7948,
      "men": 7949,
      "mes": 7950,
      "pur": 7951,
      "publ": 7952,
      "rest": 7953,
      "sim": 7954,
      "width": 7955,
      "yer": 7956,
      "youtube": 7957,
      "zil": 7958,
      "Ãł": 7959,
      "×ŀ×": 7960,
      "Ġent": 7961,
      "à®ķà®Łà®ª": 7962,
      "à®¤à®ļà®¤": 7963,
      "à®Łà®ķà®²": 7964,
      "à®Łà®µà®²": 7965,
      "à®ªà®³à®¤": 7966,
      "à®ªà®ªà®¨": 7967,
      "à®®à®ļà®¨": 7968,
      "à®²à®µà®Ł": 7969,
      "à®©à®ķà®µ": 7970,
      "à®¯à®´à®ķ": 7971,
      "à®³à®°à®®": 7972,
      "à®³à®´à®ķà®°": 7973,
      "à®ķà®³à®¨": 7974,
      "à®£à®¯à®ķ": 7975,
      "à®¨à®Ļ": 7976,
      "à®¨à®µà®°à®¤": 7977,
      "Ġà®¤à®¯à®µ": 7978,
      "Ġà®ļà®µà®°": 7979,
      "Ġà®¨à®²à®µ": 7980,
      "Ġà®İà®µà®©": 7981,
      "Ġà®İà®ļà®®": 7982,
      "Ġà®īà®¤à®ķ": 7983,
      "à¯Ģà¯į": 7984,
      "à®µà®°à®£": 7985,
      "à®Łà®¤à®²": 7986,
      "à®ĩà®³à®Ļ": 7987,
      "Ġà®¤à®®à®¯à®¨": 7988,
      "Ġà®ħà®°à®ĥà®ª": 7989,
      "à¯ģ,\"": 7990,
      "Ġ217": 7991,
      "Ġ212": 7992,
      "à®¿..": 7993,
      "à®ķà®µà®Ł": 7994,
      "à®ľà®ķà®µ": 7995,
      "à®ľà®¯à®µ": 7996,
      "à®¯à®©à®ļ": 7997,
      "à®©à®¤à®±": 7998,
      "Ġà®ıà®£": 7999,
      "Ġà®ıà®²à®®": 8000,
      "Ġà®ĩà®²à®ŀ": 8001,
      "Ġà®ªà®Łà®²": 8002,
      "Ġà®ķà®²à®ķà®Ļ": 8003,
      "Ġà®ķà®²à®ļà®ª": 8004,
      "Ġà®ľà®¨": 8005,
      "à®ħà®¯à®©": 8006,
      "à®ħà®±à®ª": 8007,
      "à®Ĩà®²à®¯à®®": 8008,
      "Ġà®¯à®Ł": 8009,
      "Ġà®¨à®ķà®°à®ļ": 8010,
      "Ġà®Ĩà®®à®£à®ķ": 8011,
      "Ġà®®à®©à®¨à®²": 8012,
      "onn": 8013,
      "Ġ\".": 8014,
      "Ġà®ĵà®¸": 8015,
      "Ġ310": 8016,
      "Ġ323": 8017,
      "à®©à®®à®¯à®®": 8018,
      "arai": 8019,
      "Ġà®Īà®°à®£": 8020,
      "à®¤à®ķà®ļ": 8021,
      "Ġà®ªà®±à®Ļ": 8022,
      "Ġà®Ĩà®Łà®±": 8023,
      "à®īà®Łà®²à®®": 8024,
      "Ġà®ĩà®Łà®Ĵà®¤": 8025,
      "thur": 8026,
      "à®ķà®£à®ļ": 8027,
      "ised": 8028,
      "à®ªà®©à®Ļ": 8029,
      "Ġ543": 8030,
      "Ġà®¹à®¯": 8031,
      "ĠSl": 8032,
      "ĠSal": 8033,
      "ĠCorn": 8034,
      "Ġà®īà®²à®µ": 8035,
      "ĠATP": 8036,
      "ams": 8037,
      "ĠTO": 8038,
      "ĠTur": 8039,
      "ĠTra": 8040,
      "ĠPage": 8041,
      "ĠPear": 8042,
      "ĠPenguin": 8043,
      "Ġ747": 8044,
      "ĠMoh": 8045,
      "ĠMedia": 8046,
      "ĠMicro": 8047,
      "url": 8048,
      "Ġ157": 8049,
      "olic": 8050,
      "175": 8051,
      "1712": 8052,
      "1755": 8053,
      "1785": 8054,
      "1787": 8055,
      "Ġ171": 8056,
      "Ġ173": 8057,
      "Ġ178": 8058,
      "Ġ1732": 8059,
      "Ġ1775": 8060,
      "Ġ1785": 8061,
      "Ġ1784": 8062,
      "Ġ1753": 8063,
      "Ġ1774": 8064,
      "ĠIM": 8065,
      "ĠISO": 8066,
      "ĠIBM": 8067,
      "ingam": 8068,
      "ĠRuther": 8069,
      "Ġ208": 8070,
      "Ġ1658": 8071,
      "Ġ1687": 8072,
      "ĠLuc": 8073,
      "ĠLayer": 8074,
      "ĠLexic": 8075,
      "ĠHol": 8076,
      "ĠHill": 8077,
      "Ġ122": 8078,
      "1690": 8079,
      "ĠGreen": 8080,
      "ĠGutenberg": 8081,
      "Ġà®ķà®®à®´": 8082,
      "1519": 8083,
      "ĠFund": 8084,
      "Ġpre": 8085,
      "umn": 8086,
      "ivate": 8087,
      "Ġ141": 8088,
      "Ġ1453": 8089,
      "Ġà®ļà®©à®ļà®®": 8090,
      "una": 8091,
      "à®²à®µà®°à®µà®°": 8092,
      "Ġcut": 8093,
      "rait": 8094,
      "Ġ137": 8095,
      "iginal": 8096,
      "à¯į'(": 8097,
      "à®ıà®Ł": 8098,
      "ĠWall": 8099,
      "emon": 8100,
      "à®Ĭà®®": 8101,
      "iae": 8102,
      "ulata": 8103,
      "Ġdist": 8104,
      "Ġ08": 8105,
      "ĠInn": 8106,
      "ĠIns": 8107,
      "Ġmost": 8108,
      "ayak": 8109,
      "ĠĠĠĠĠĠĠĠĠĠĠĠĠĠĠĠĠĠĠ": 8110,
      "ĠĠĠĠĠĠĠĠĠĠĠĠĠĠĠĠĠĠĠĠĠĠĠĠĠĠ": 8111,
      "rik": 8112,
      "ĠUr": 8113,
      "Ġà®¤à®ķà®©à®®": 8114,
      "Ġà®ªà®°à®®à®©": 8115,
      "come": 8116,
      "à®ľà®¯à®¨": 8117,
      "à®ľà®¯à®¨à®ķà®°à®®": 8118,
      "Ġ2400": 8119,
      "uba": 8120,
      "Ġ228": 8121,
      "Ġnews": 8122,
      "à®¿\")": 8123,
      "akrish": 8124,
      "aves": 8125,
      "Ġà®ªà®µà®³à®®": 8126,
      "ardo": 8127,
      "=\"#": 8128,
      "ĠChurch": 8129,
      "evi": 8130,
      "occ": 8131,
      "isher": 8132,
      "ecture": 8133,
      "Ġstate": 8134,
      "ello": 8135,
      "elligence": 8136,
      "287": 8137,
      "anti": 8138,
      "ĠArts": 8139,
      "ĠPrent": 8140,
      "obacter": 8141,
      "Ġatt": 8142,
      "Ġatomic": 8143,
      "Ġà®¨à®°à®ķà®®": 8144,
      "Ġà®¨à®°à®ķà®¤": 8145,
      "ĠYou": 8146,
      "à´¨": 8147,
      "ike": 8148,
      "ikk": 8149,
      "eginn": 8150,
      "à¯ģ',": 8151,
      "ĠProcess": 8152,
      "plan": 8153,
      "place": 8154,
      "ĠThree": 8155,
      "Ang": 8156,
      "Ġkn": 8157,
      "Ġà¤ª": 8158,
      "ĠColumb": 8159,
      "à§ĩ": 8160,
      "ymn": 8161,
      "ĠGuard": 8162,
      "ĠSpirit": 8163,
      "COOH": 8164,
      "tamilnation": 8165,
      "ĠÐ¿": 8166,
      "ĠVoltage": 8167,
      "ophyll": 8168,
      "reder": 8169,
      "Ġphotos": 8170,
      "ĠUSSR": 8171,
      "alays": 8172,
      "ĠCentury": 8173,
      "ĠFrance": 8174,
      "iterature": 8175,
      "Order": 8176,
      "Phil": 8177,
      "ĠAtomic": 8178,
      "ĠAtlas": 8179,
      "ĠHarper": 8180,
      "official": 8181,
      "Ġenergy": 8182,
      "ietnam": 8183,
      "Ġblock": 8184,
      "à®®à®ķà®°à®¨": 8185,
      "ĠClassical": 8186,
      "ĠSamuel": 8187,
      "ynamic": 8188,
      "ĠEssay": 8189,
      "Thiruv": 8190,
      "ĠProgramming": 8191
    },
    "merges": [
      [
        "à",
        "®"
      ],
      [
        "à",
        "¯"
      ],
      [
        "à¯",
        "į"
      ],
      [
        "Ġ",
        "à®"
      ],
      [
        "à®",
        "¿"
      ],
      [
        "à¯",
        "ģ"
      ],
      [
        "à®",
        "ķ"
      ],
      [
        "à®",
        "¤"
      ],
      [
        "à®",
        "°"
      ],
      [
        "à®",
        "¾"
      ],
      [
        "à®",
        "Ł"
      ],
      [
        "à®",
        "ª"
      ],
      [
        "à®",
        "®"
      ],
      [
        "à®",
        "²"
      ],
      [
        "à®",
        "©"
      ],
      [
        "à®",
        "¯"
      ],
      [
        "à®",
        "³"
      ],
      [
        "à¯",
        "Ī"
      ],
      [
        "à®",
        "±"
      ],
      [
        "à®",
        "µ"
      ],
      [
        "Ġà®",
        "ª"
      ],
      [
        "Ġà®",
        "ķ"
      ],
      [
        "à®",
        "ļ"
      ],
      [
        "à®ķ",
        "à®³"
      ],
      [
        "Ġà®",
        "®"
      ],
      [
        "à®",
        "£"
      ],
      [
        "à®",
        "¨"
      ],
      [
        "Ġà®",
        "¤"
      ],
      [
        "Ġà®",
        "ĩ"
      ],
      [
        "Ġà®",
        "µ"
      ],
      [
        "à¯",
        "Ĩ"
      ],
      [
        "à¯",
        "ĩ"
      ],
      [
        "Ġà®",
        "ļ"
      ],
      [
        "Ġà®",
        "ħ"
      ],
      [
        "à¯",
        "ĭ"
      ],
      [
        "Ġà®",
        "¨"
      ],
      [
        "à®",
        "´"
      ],
      [
        "à®",
        "Ļ"
      ],
      [
        "à¯",
        "Ĭ"
      ],
      [
        "à®ª",
        "à®Ł"
      ],
      [
        "à¯į",
        "."
      ],
      [
        "Ġà®",
        "İ"
      ],
      [
        "Ġà®",
        "Ĩ"
      ],
      [
        "à¯",
        "Ĥ"
      ],
      [
        "à¯į",
        ","
      ],
      [
        "Ġà®",
        "ī"
      ],
      [
        "à¯",
        "Ģ"
      ],
      [
        "à¯ģ",
        "."
      ],
      [
        "à®µ",
        "à®°"
      ],
      [
        "Ġà®İ",
        "à®©"
      ],
      [
        "Ġ",
        "("
      ],
      [
        "Ġà®ĩ",
        "à®°"
      ],
      [
        "Ġ",
        "1"
      ],
      [
        "Ġà®",
        "Ĵ"
      ],
      [
        "Ġ",
        "Ċ"
      ],
      [
        "à®ķ",
        "à®ª"
      ],
      [
        "à®ķ",
        "à®°"
      ],
      [
        "à®",
        "¸"
      ],
      [
        "à®Ł",
        "à®¤"
      ],
      [
        "à®¤",
        "à®©"
      ],
      [
        "à®¤",
        "à®²"
      ],
      [
        "à®±",
        "à®¤"
      ],
      [
        "à®µ",
        "à®¤"
      ],
      [
        "à®¯",
        "à®²"
      ],
      [
        "à®ķ",
        "à®®"
      ],
      [
        "â",
        "Ģ"
      ],
      [
        "à®ª",
        "à®¤"
      ],
      [
        "Ġà®ħ",
        "à®®"
      ],
      [
        "à®",
        "ĩ"
      ],
      [
        "à®¯",
        "à®°"
      ],
      [
        "Ġà®®",
        "à®±"
      ],
      [
        "à®©",
        "à®°"
      ],
      [
        "à®Ł",
        "à®®"
      ],
      [
        "Ġ",
        "âĢ"
      ],
      [
        "à®¯",
        "à®¤"
      ],
      [
        "à®ķ",
        "à®¤"
      ],
      [
        "Ġà®Ĵ",
        "à®°"
      ],
      [
        "ĠâĢ",
        "ĵ"
      ],
      [
        "à®¯",
        "à®®"
      ],
      [
        "à®°",
        "à®®"
      ],
      [
        "Ġà®ĩ",
        "à®¨"
      ],
      [
        "Ġà®ĩ",
        "à®¤"
      ],
      [
        "Ġà®ī",
        "à®³"
      ],
      [
        "Ġà®¤",
        "à®®"
      ],
      [
        "Ġ",
        "Ġ"
      ],
      [
        "Ġà®µ",
        "à®°"
      ],
      [
        "1",
        "9"
      ],
      [
        "Ġà®Ĩ",
        "à®ķ"
      ],
      [
        "à®¤",
        "à®¤"
      ],
      [
        "Ġà®ķ",
        "à®Ł"
      ],
      [
        "Ġà®ħ",
        "à®°"
      ],
      [
        "à®Ł",
        "à®©"
      ],
      [
        "à®²",
        "à®¤"
      ],
      [
        "0",
        "0"
      ],
      [
        "à¯ģ",
        ","
      ],
      [
        "Ġ1",
        "9"
      ],
      [
        "Ġ",
        "2"
      ],
      [
        "Ġà®¨",
        "à®Ł"
      ],
      [
        "à®³",
        "à®°"
      ],
      [
        "Ġ",
        "-"
      ],
      [
        "à®¿",
        "."
      ],
      [
        "à®ķ",
        "à®µ"
      ],
      [
        "à®",
        "ľ"
      ],
      [
        "à®¤",
        "à®®"
      ],
      [
        "à®²",
        "à®®"
      ],
      [
        "à®¯",
        "à®©"
      ],
      [
        "à®©",
        "à®¤"
      ],
      [
        "Ġà®Ĩ",
        "à®£"
      ],
      [
        "Ġà®",
        "ı"
      ],
      [
        "à®³",
        "à®¤"
      ],
      [
        "Ġà®ĩ",
        "à®²"
      ],
      [
        "Ġà®ħ",
        "à®¤"
      ],
      [
        "Ġà®",
        "°"
      ],
      [
        "à®",
        "ŀ"
      ],
      [
        "Ġà®ª",
        "à®Ł"
      ],
      [
        "Ġà®ª",
        "à®²"
      ],
      [
        "à®Ł",
        "à®°"
      ],
      [
        "Ġà®ķ",
        "à®£"
      ],
      [
        "à®ķ",
        "à®²"
      ],
      [
        "Ġà®ķ",
        "à®²"
      ],
      [
        "Ġà®®",
        "à®ķ"
      ],
      [
        "à®¤",
        "à®°"
      ],
      [
        "à®ª",
        "à®°"
      ],
      [
        "Ġà®ħ",
        "à®Ł"
      ],
      [
        "à®¿",
        ","
      ],
      [
        "à®¯",
        "à®ķ"
      ],
      [
        "Ġà®ī",
        "à®°"
      ],
      [
        "à®±",
        "à®©"
      ],
      [
        "à®µ",
        "à®©"
      ],
      [
        "Ġà®",
        "ľ"
      ],
      [
        "Ġà®ķ",
        "à®°"
      ],
      [
        "à®¤",
        "à®ª"
      ],
      [
        "Ġà®ħ",
        "à®²"
      ],
      [
        "à®¯",
        "à®ª"
      ],
      [
        "Ġà®ª",
        "à®ķ"
      ],
      [
        "Ġà®ħ",
        "à®±"
      ],
      [
        "à®",
        "ħ"
      ],
      [
        "à®°",
        "à®¤"
      ],
      [
        "à®Ł",
        "à®²"
      ],
      [
        "à®±",
        "à®ª"
      ],
      [
        "à®",
        "Ĩ"
      ],
      [
        "Ġà®ħ",
        "à®µà®°"
      ],
      [
        "Ġà®",
        "Ł"
      ],
      [
        "à®ªà®Ł",
        "à®Ļ"
      ],
      [
        "Ġà®ħà®°",
        "à®ļ"
      ],
      [
        "à®²",
        "à®ķ"
      ],
      [
        "à®£",
        "à®®"
      ],
      [
        "Ġà®µ",
        "à®´"
      ],
      [
        "à®µ",
        "à®Ł"
      ],
      [
        "à®Ł",
        "à®Ļ"
      ],
      [
        "à®µ",
        "à®±"
      ],
      [
        "Ġà®ļ",
        "à®®"
      ],
      [
        "Ġà®ª",
        "à®°"
      ],
      [
        "à®¯",
        "à®±"
      ],
      [
        "à®Ł",
        "à®ķ"
      ],
      [
        "a",
        "n"
      ],
      [
        "Ġà®",
        "¯"
      ],
      [
        "à®",
        "·"
      ],
      [
        "à®®",
        "à®©"
      ],
      [
        "à®³",
        "à®µ"
      ],
      [
        "Ġà®İ",
        "à®´"
      ],
      [
        "à®Ł",
        "à®ª"
      ],
      [
        "Ġà®¤",
        "à®²"
      ],
      [
        "à¯į",
        ")"
      ],
      [
        "Ġà®¨",
        "à®ķà®°"
      ],
      [
        "Ġà®ħ",
        "à®©"
      ],
      [
        "e",
        "r"
      ],
      [
        "à®ķ",
        "à®ķ"
      ],
      [
        "Ġà®",
        "Ĳ"
      ],
      [
        "Ġà®Ĩ",
        "à®®"
      ],
      [
        "Ġà®¤",
        "à®©"
      ],
      [
        "Ġà®ĩ",
        "à®µà®°"
      ],
      [
        "Ġà®ĩ",
        "à®£"
      ],
      [
        "à®ļ",
        "à®©"
      ],
      [
        "Ġà®®",
        "à®©"
      ],
      [
        "Ġà®Ĵ",
        "à®©"
      ],
      [
        "ĠĠ",
        "ĠĠ"
      ],
      [
        "à®ķ",
        "à®´"
      ],
      [
        "à®ļ",
        "à®°"
      ],
      [
        "Ġà®ª",
        "à®¤"
      ],
      [
        "à®µ",
        "à®®"
      ],
      [
        "Ġà®ª",
        "à®¯à®©"
      ],
      [
        "Ġà®ı",
        "à®±"
      ],
      [
        "o",
        "n"
      ],
      [
        "Ġà®",
        "²"
      ],
      [
        "à¯Ī",
        ","
      ],
      [
        "i",
        "n"
      ],
      [
        "à®ļ",
        "à®®"
      ],
      [
        "à®",
        "İ"
      ],
      [
        "Ġ",
        "\""
      ],
      [
        "Ġà®µ",
        "à®Ł"
      ],
      [
        "Ġà®ª",
        "à®£"
      ],
      [
        "à®°",
        "à®ª"
      ],
      [
        "à®³",
        "à®®"
      ],
      [
        "à®µ",
        "à®¨"
      ],
      [
        "Ġà®ĩ",
        "à®ļ"
      ],
      [
        "Ġà®ħ",
        "à®´"
      ],
      [
        "à®®",
        "à®²"
      ],
      [
        "Ġà®",
        "ĵ"
      ],
      [
        "Ġà®ĩ",
        "à®©"
      ],
      [
        "Ġà®ī",
        "à®±"
      ],
      [
        "Ġà®µ",
        "à®ķ"
      ],
      [
        "à®°",
        "à®ļ"
      ],
      [
        "à®¤",
        "à®µ"
      ],
      [
        "à®³",
        "à®©"
      ],
      [
        "Ġà®ĩ",
        "à®µ"
      ],
      [
        "à®±",
        "à®¨"
      ],
      [
        "Ġà®ī",
        "à®£"
      ],
      [
        "a",
        "l"
      ],
      [
        "Ġà®ĩà®°",
        "à®£"
      ],
      [
        "a",
        "t"
      ],
      [
        "à®¯",
        "à®Ļ"
      ],
      [
        "Ġà®ħ",
        "à®£"
      ],
      [
        "Ġ",
        "3"
      ],
      [
        "à®ª",
        "à®ķ"
      ],
      [
        "à®´",
        "à®ķ"
      ],
      [
        "0",
        "1"
      ],
      [
        "à®©",
        "à®®"
      ],
      [
        "a",
        "r"
      ],
      [
        "à¯Ī",
        "."
      ],
      [
        "Ġà®®",
        "à®¤"
      ],
      [
        "à®ķ",
        "à®Ļ"
      ],
      [
        "Ġà®Ĩ",
        "à®°"
      ],
      [
        "o",
        "r"
      ],
      [
        "Ġà®ĩ",
        "à®¯à®ķ"
      ],
      [
        "Ġà®µ",
        "à®¨"
      ],
      [
        "Ġà®",
        "Ĭ"
      ],
      [
        "à®¤à®©",
        "à®°"
      ],
      [
        "Ġà®",
        "Ī"
      ],
      [
        "Ġà®İ",
        "à®¤"
      ],
      [
        "Ġà®ĩ",
        "à®¤à®©"
      ],
      [
        "à®²",
        "à®Ļ"
      ],
      [
        "e",
        "n"
      ],
      [
        "à®¾",
        ","
      ],
      [
        "Ġ2",
        "00"
      ],
      [
        "Ġà®®",
        "à®°"
      ],
      [
        "Ġà®ļ",
        "à®°"
      ],
      [
        "à®¤",
        "à®ķ"
      ],
      [
        "Ġà®İ",
        "à®Ł"
      ],
      [
        "à®²",
        "à®ª"
      ],
      [
        "Ġà®ħ",
        "à®µ"
      ],
      [
        "Ġ1",
        "8"
      ],
      [
        "à®ķ",
        "à®Ł"
      ],
      [
        "à®±",
        "à®®"
      ],
      [
        "à¯į",
        ":"
      ],
      [
        "1",
        "8"
      ],
      [
        "à®µ",
        "à®²"
      ],
      [
        "à®ĩ",
        "à®¨"
      ],
      [
        "Ġà®ª",
        "à®±"
      ],
      [
        ")",
        ","
      ],
      [
        "à®ķ",
        "à®©"
      ],
      [
        "Ġà®Ĩ",
        "à®Ł"
      ],
      [
        "à®",
        "ī"
      ],
      [
        "Ġà®Ĩ",
        "à®±"
      ],
      [
        "e",
        "s"
      ],
      [
        "à®°",
        "à®Ļ"
      ],
      [
        "Ġà®ĩ",
        "à®Ł"
      ],
      [
        "à®ª",
        "à®²"
      ],
      [
        "Ġà®®",
        "à®²"
      ],
      [
        "à®£",
        "à®ª"
      ],
      [
        "i",
        "c"
      ],
      [
        "Ġà®ħ",
        "à®³à®µ"
      ],
      [
        "Ġà®Ĩ",
        "à®©"
      ],
      [
        "Ġà®ĩà®²",
        "à®Ļ"
      ],
      [
        "à®®",
        "à®¤"
      ],
      [
        "Ġ",
        "4"
      ],
      [
        "Ġà®ĩ",
        "à®ª"
      ],
      [
        "Ġà®Ĩ",
        "à®¯"
      ],
      [
        "Ġà®®",
        "à®£"
      ],
      [
        "t",
        "h"
      ],
      [
        "Ġà®ħ",
        "à®¤à®©"
      ],
      [
        "à®ª",
        "à®®"
      ],
      [
        "à®ķ",
        "à®£"
      ],
      [
        "Ġà®ī",
        "à®Ł"
      ],
      [
        "i",
        "s"
      ],
      [
        "à¯ĩ",
        "."
      ],
      [
        "à®ª",
        "à®©"
      ],
      [
        "Ġ",
        "5"
      ],
      [
        "à®ªà®Ł",
        "à®®"
      ],
      [
        "Ġà®",
        "¹"
      ],
      [
        "Ġà®İ",
        "à®£"
      ],
      [
        "à®ªà®Ł",
        "à®¤"
      ],
      [
        "à®µ",
        "à®ķ"
      ],
      [
        "Ġà®ī",
        "à®¯"
      ],
      [
        "à®ļ",
        "à®¤"
      ],
      [
        "à®®",
        "à®°"
      ],
      [
        "Ġà®ĩ",
        "à®±"
      ],
      [
        "Ġà®",
        "¸"
      ],
      [
        "à®¨",
        "à®ķà®°"
      ],
      [
        "Ġà®®",
        "à®Ł"
      ],
      [
        "à®°",
        "à®£"
      ],
      [
        "Ġà®ħ",
        "à®ķ"
      ],
      [
        "Ġ",
        "S"
      ],
      [
        "Ġà®ħ",
        "à®ª"
      ],
      [
        "Ġà®ĩ",
        "à®Ļ"
      ],
      [
        "à®´",
        "à®¨"
      ],
      [
        "Ġà®ķ",
        "à®¤"
      ],
      [
        "Ġ",
        "C"
      ],
      [
        "à®°",
        "à®°"
      ],
      [
        "à®ª",
        "à®¨"
      ],
      [
        "Ġà®ª",
        "à®¯"
      ],
      [
        "Ġà®µ",
        "à®³à®°"
      ],
      [
        "à®°",
        "à®©"
      ],
      [
        "Ġà®ī",
        "à®¯à®°"
      ],
      [
        "Ġà®¤",
        "à®°"
      ],
      [
        "Ġà®ī",
        "à®²"
      ],
      [
        "Ġà®ħ",
        "à®¨"
      ],
      [
        "à®¤",
        "à®µà®°"
      ],
      [
        "à®ŀ",
        "à®°"
      ],
      [
        "Ġà®µà®´",
        "à®Ļ"
      ],
      [
        "Ġ",
        "A"
      ],
      [
        "Ġà®µà®°",
        "à®²"
      ],
      [
        "Ġà®İ",
        "à®²"
      ],
      [
        "Ġà®ī",
        "à®²à®ķ"
      ],
      [
        "à®",
        "¹"
      ],
      [
        "2",
        "00"
      ],
      [
        "i",
        "t"
      ],
      [
        "i",
        "on"
      ],
      [
        "Ġà®ļ",
        "à®¨"
      ],
      [
        "Ġà®ļ",
        "à®ķ"
      ],
      [
        "à®Ĩ",
        "à®®"
      ],
      [
        "Ġà®¤",
        "à®©à®¤"
      ],
      [
        "à®µà®¤",
        "à®±"
      ],
      [
        "Ġ",
        "6"
      ],
      [
        "à®³",
        "à®Ļ"
      ],
      [
        "Ġà®µ",
        "à®²"
      ],
      [
        "o",
        "f"
      ],
      [
        "à®ļ",
        "à®²"
      ],
      [
        "Ġà®İ",
        "à®¸"
      ],
      [
        "a",
        "m"
      ],
      [
        "à®¯",
        "à®µ"
      ],
      [
        "à®£",
        "à®¤"
      ],
      [
        "à®°",
        "à®£à®®"
      ],
      [
        "Ġà®ĩà®²",
        "à®ķ"
      ],
      [
        "Ġà®ĩ",
        "à®Łà®®"
      ],
      [
        "à®ķ",
        "à®ļ"
      ],
      [
        "Ġ",
        "T"
      ],
      [
        "à®®",
        "à®ķ"
      ],
      [
        "Ġ",
        "P"
      ],
      [
        "à®³",
        "à®©à®°"
      ],
      [
        "Ġà®ª",
        "à®´"
      ],
      [
        "à®±",
        "à®ķ"
      ],
      [
        "l",
        "e"
      ],
      [
        "à®±",
        "à®©à®°"
      ],
      [
        "à®ª",
        "à®±"
      ],
      [
        "Â",
        "ł"
      ],
      [
        "Ġà®ķ",
        "à®©"
      ],
      [
        "Ġà®ĩ",
        "à®¯à®±"
      ],
      [
        "ĠĠĠĠ",
        "ĠĠĠĠ"
      ],
      [
        "Ġ",
        "7"
      ],
      [
        "à®°",
        "à®Ł"
      ],
      [
        "Ġà®¤",
        "à®Ł"
      ],
      [
        "Ġ",
        "of"
      ],
      [
        "à®³",
        "à®ķ"
      ],
      [
        "à®ª",
        "à®µà®°"
      ],
      [
        "à®²",
        "à®µ"
      ],
      [
        "à®±",
        "à®µ"
      ],
      [
        "à¯į",
        "\""
      ],
      [
        "Ġà®Ĩ",
        "à®°à®®"
      ],
      [
        "o",
        "m"
      ],
      [
        "Ġ",
        "M"
      ],
      [
        "Ġà®¤",
        "à®Ļ"
      ],
      [
        "Ġà®Ĩ",
        "à®Ļ"
      ],
      [
        "Ġà®ļ",
        "à®Ł"
      ],
      [
        "Ġ19",
        "9"
      ],
      [
        "Ġà®ħ",
        "à®Ļ"
      ],
      [
        "Ġ",
        "8"
      ],
      [
        "à®°",
        "à®²"
      ],
      [
        "à¯",
        "Į"
      ],
      [
        "Ġà®ļ",
        "à®¤"
      ],
      [
        "à®®",
        "à®£"
      ],
      [
        "Ġà®Ĩ",
        "à®ļ"
      ],
      [
        "Ġ",
        "9"
      ],
      [
        "Ġà®İà®©",
        "à®ª"
      ],
      [
        "00",
        "0"
      ],
      [
        "Ġà®ħ",
        "à®ļ"
      ],
      [
        "19",
        "7"
      ],
      [
        "Ġà®µ",
        "à®£"
      ],
      [
        "Ġà®Ĭ",
        "à®°"
      ],
      [
        "u",
        "r"
      ],
      [
        "à®´",
        "à®°"
      ],
      [
        "à¯į",
        "-"
      ],
      [
        "à®°",
        "à®ķ"
      ],
      [
        "Ġà®Ĩ",
        "à®¤"
      ],
      [
        "Ġà®Ĩ",
        "à®µ"
      ],
      [
        "an",
        "d"
      ],
      [
        "à®µ",
        "à®ª"
      ],
      [
        "à®Ł",
        "à®©à®°"
      ],
      [
        "ĥ",
        "à®ª"
      ],
      [
        "Ġ2",
        "01"
      ],
      [
        "2",
        "01"
      ],
      [
        "à®Ł",
        "à®µ"
      ],
      [
        "a",
        "s"
      ],
      [
        "Ġ19",
        "7"
      ],
      [
        "Ġà®ķ",
        "à®µ"
      ],
      [
        "Ġ",
        "'"
      ],
      [
        "Ġ1",
        "5"
      ],
      [
        "19",
        "4"
      ],
      [
        "Ġà®¤",
        "à®¯"
      ],
      [
        "Ġà®ĩ",
        "à®ķ"
      ],
      [
        "Ġà®ķ",
        "à®±"
      ],
      [
        "à®³",
        "à®ª"
      ],
      [
        "Ġà®ªà®²",
        "à®°"
      ],
      [
        "19",
        "9"
      ],
      [
        "o",
        "l"
      ],
      [
        "Ġà®ķà®Ł",
        "à®²"
      ],
      [
        "19",
        "8"
      ],
      [
        "à®ļ",
        "à®ª"
      ],
      [
        "Ġà®ļ",
        "à®Ļ"
      ],
      [
        "Ġà®ª",
        "à®©"
      ],
      [
        "Ġ19",
        "8"
      ],
      [
        "Ġà®¤",
        "à®±"
      ],
      [
        "à®£",
        "à®©"
      ],
      [
        "Ġ",
        "B"
      ],
      [
        "i",
        "l"
      ],
      [
        "à®®",
        "à®®"
      ],
      [
        "Ġà®Ĳ",
        "à®ķ"
      ],
      [
        "à®",
        "Ĵ"
      ],
      [
        "à®ĩ",
        "à®²"
      ],
      [
        "19",
        "6"
      ],
      [
        "1",
        "7"
      ],
      [
        "à®¿",
        ")"
      ],
      [
        "Ġà®ª",
        "à®Ļ"
      ],
      [
        "Ġà®µ",
        "à®³"
      ],
      [
        "à®¤",
        "à®Ļ"
      ],
      [
        "h",
        "e"
      ],
      [
[...]
